<unk>	0
<s>	0
</s>	0
▁п	-0
▁в	-1
▁с	-2
ст	-3
ов	-4
▁н	-5
ра	-6
ен	-7
ро	-8
ре	-9
▁о	-10
▁по	-11
▁м	-12
ко	-13
го	-14
▁и	-15
ли	-16
но	-17
ни	-18
ет	-19
▁д	-20
ри	-21
то	-22
▁на	-23
ль	-24
ка	-25
ла	-26
за	-27
ер	-28
ны	-29
та	-30
на	-31
▁б	-32
те	-33
ва	-34
ени	-35
ск	-36
ле	-37
▁а	-38
да	-39
▁у	-40
▁со	-41
ло	-42
▁"	-43
▁ч	-44
сти	-45
▁за	-46
ся	-47
ти	-48
ци	-49
▁к	-50
ово	-51
ру	-52
ви	-53
▁ко	-54
ди	-55
▁г	-56
сс	-57
ми	-58
▁ра	-59
во	-60
не	-61
ть	-62
ско	-63
▁про	-64
ан	-65
▁т	-66
де	-67
▁мо	-68
▁го	-69
▁до	-70
▁не	-71
▁во	-72
▁об	-73
▁пре	-74
мо	-75
ова	-76
ки	-77
▁1	-78
▁2	-79
▁-	-80
ля	-81
ду	-82
▁ф	-83
бо	-84
ста	-85
по	-86
▁от	-87
▁при	-88
▁ре	-89
ем	-90
ры	-91
ве	-92
▁ново	-93
▁э	-94
об	-95
ма	-96
чи	-97
▁ро	-98
ски	-99
▁ма	-100
ров	-101
риа	-102
па	-103
тель	-104
ча	-105
лу	-106
▁е	-107
ения	-108
▁новости	-109
ши	-110
▁вы	-111
▁ми	-112
ной	-113
ей	-114
ги	-115
▁из	-116
ного	-117
▁риа	-118
щи	-119
ных	-120
жи	-121
хо	-122
сси	-123
▁моск	-124
че	-125
▁ка	-126
ент	-127
га	-128
до	-129
зи	-130
се	-131
▁сооб	-132
ну	-133
сто	-134
▁ме	-135
",	-136
ник	-137
ции	-138
ту	-139
ку	-140
сь	-141
▁де	-142
▁росси	-143
▁что	-144
пи	-145
ме	-146
ение	-147
би	-148
жа	-149
ный	-150
си	-151
▁под	-152
же	-153
ере	-154
▁бо	-155
ше	-156
лов	-157
ств	-158
ур	-159
са	-160
▁то	-161
ря	-162
ек	-163
тся	-164
▁20	-165
ской	-166
▁пред	-167
▁бы	-168
▁(	-169
ные	-170
лет	-171
ня	-172
▁па	-173
вы	-174
лен	-175
каза	-176
ща	-177
зо	-178
му	-179
ства	-180
▁кото	-181
▁та	-182
вер	-183
▁са	-184
▁те	-185
ского	-186
ба	-187
▁ста	-188
ке	-189
она	-190
бе	-191
ты	-192
гра	-193
▁ин	-194
он	-195
▁р	-196
▁су	-197
ется	-198
ным	-199
▁москва	-200
ша	-201
пе	-202
▁я	-203
ще	-204
▁бу	-205
сть	-206
▁че	-207
лю	-208
ении	-209
стра	-210
▁ц	-211
▁си	-212
▁раз	-213
▁ст	-214
ния	-215
▁ру	-216
▁ли	-217
ев	-218
ков	-219
▁но	-220
су	-221
мен	-222
▁пере	-223
дет	-224
рав	-225
ном	-226
▁пос	-227
▁се	-228
▁з	-229
лей	-230
ют	-231
▁рф	-232
ды	-233
▁3	-234
ский	-235
▁ав	-236
фи	-237
ство	-238
спо	-239
▁это	-240
бы	-241
рова	-242
тов	-243
▁кон	-244
ска	-245
нии	-246
▁сообщи	-247
▁года	-248
▁ком	-249
ран	-250
▁воз	-251
пу	-252
ха	-253
лся	-254
нов	-255
▁бе	-256
мы	-257
▁сто	-258
▁201	-259
ция	-260
стави	-261
▁пра	-262
▁россии	-263
кс	-264
ор	-265
ят	-266
дер	-267
▁ве	-268
ниц	-269
ствен	-270
ласти	-271
▁челов	-272
ден	-273
▁для	-274
гу	-275
про	-276
ная	-277
кра	-278
▁ш	-279
жен	-280
кт	-281
тив	-282
сту	-283
ное	-284
лед	-285
▁ки	-286
ние	-287
вши	-288
▁прои	-289
▁гла	-290
▁сказа	-291
мет	-292
▁которы	-293
тор	-294
▁хо	-295
▁жи	-296
▁пер	-297
▁дол	-298
▁ба	-299
ских	-300
▁сообща	-301
став	-302
ге	-303
▁ви	-304
▁сре	-305
ности	-306
▁все	-307
▁ни	-308
стан	-309
▁рабо	-310
рем	-311
ром	-312
род	-313
зу	-314
аль	-315
бу	-316
▁пу	-317
▁чет	-318
рта	-319
со	-320
рии	-321
▁поли	-322
лись	-323
▁4	-324
00	-325
ском	-326
овы	-327
ень	-328
кон	-329
▁он	-330
▁сво	-331
▁сказал	-332
прав	-333
▁ты	-334
▁руб	-335
▁фи	-336
▁дан	-337
▁так	-338
рт	-339
▁пресс	-340
лли	-341
▁его	-342
▁человек	-343
▁ку	-344
▁пров	-345
▁авто	-346
▁полу	-347
▁сообщил	-348
▁ча	-349
ходи	-350
це	-351
".	-352
▁5	-353
стоя	-354
▁од	-355
▁аг	-356
ления	-357
пре	-358
стви	-359
бли	-360
▁россий	-361
кры	-362
▁6	-363
▁уча	-364
ву	-365
▁ю	-366
яви	-367
ца	-368
▁агент	-369
▁как	-370
▁ию	-371
▁будет	-372
ться	-373
лы	-374
▁сов	-375
▁тыся	-376
стре	-377
бур	-378
▁ор	-379
ета	-380
▁ев	-381
ские	-382
▁области	-383
▁врем	-384
зы	-385
▁ж	-386
ную	-387
чен	-388
▁му	-389
вя	-390
▁га	-391
ую	-392
▁году	-393
фор	-394
ность	-395
▁чем	-396
▁представи	-397
▁чи	-398
▁после	-399
луж	-400
▁гра	-401
▁укра	-402
▁кра	-403
рь	-404
бря	-405
руд	-406
ника	-407
лова	-408
▁прези	-409
сов	-410
гла	-411
рой	-412
▁мат	-413
▁милли	-414
▁ос	-415
руп	-416
▁боле	-417
рен	-418
▁х	-419
▁реги	-420
овори	-421
мер	-422
▁ту	-423
▁украи	-424
ком	-425
етер	-426
▁сообщает	-427
▁ва	-428
▁сообщ	-429
▁.	-430
рия	-431
▁также	-432
тин	-433
лась	-434
▁рай	-435
▁поги	-436
▁ди	-437
дент	-438
▁стра	-439
▁да	-440
▁вла	-441
▁пла	-442
▁ле	-443
станов	-444
▁боль	-445
▁расс	-446
страда	-447
▁7	-448
ний	-449
дель	-450
ская	-451
▁пострада	-452
кой	-453
▁евро	-454
дут	-455
дин	-456
▁пожа	-457
рово	-458
▁время	-459
коло	-460
нее	-461
▁тре	-462
▁нача	-463
▁фе	-464
▁том	-465
жд	-466
▁более	-467
▁четвер	-468
▁говори	-469
етербур	-470
ники	-471
льта	-472
цию	-473
▁ак	-474
ход	-475
теля	-476
ющи	-477
тия	-478
ений	-479
▁горо	-480
▁вз	-481
▁цент	-482
жет	-483
▁сот	-484
ут	-485
ников	-486
▁меж	-487
▁би	-488
дом	-489
▁мар	-490
телей	-491
▁объ	-492
зна	-493
чет	-494
ению	-495
раль	-496
),	-497
пер	-498
зульта	-499
▁москве	-500
▁произо	-501
жда	-502
ез	-503
▁результа	-504
▁прове	-505
▁слова	-506
рои	-507
лось	-508
ницу	-509
▁ан	-510
вет	-511
циаль	-512
дар	-513
оне	-514
сте	-515
▁данным	-516
▁сер	-517
▁сша	-518
дов	-519
-2	-520
шен	-521
▁говорится	-522
▁10	-523
▁был	-524
▁орга	-525
▁мет	-526
тра	-527
▁чемпи	-528
ются	-529
тер	-530
▁москвы	-531
сп	-532
▁лет	-533
▁сотруд	-534
).	-535
▁заяви	-536
▁пар	-537
▁19	-538
▁между	-539
▁ар	-540
бор	-541
три	-542
▁около	-543
стов	-544
▁побе	-545
▁8	-546
сы	-547
▁вер	-548
ней	-549
ября	-550
▁сообщении	-551
ление	-552
ональ	-553
хи	-554
▁спо	-555
ене	-556
шения	-557
гово	-558
нима	-559
▁россия	-560
тели	-561
том	-562
▁рублей	-563
цион	-564
▁втор	-565
▁само	-566
▁пят	-567
зова	-568
ом	-569
форма	-570
▁встре	-571
▁тысяч	-572
▁прави	-573
▁гу	-574
▁агентства	-575
лько	-576
▁словам	-577
▁влади	-578
цы	-579
пера	-580
лекс	-581
▁окт	-582
▁дет	-583
жно	-584
сса	-585
▁ян	-586
▁среду	-587
▁долла	-588
▁получи	-589
коно	-590
▁15	-591
▁суд	-592
ью	-593
▁поне	-594
нист	-595
▁тер	-596
утбо	-597
ково	-598
▁тур	-599
▁экс	-600
▁понедель	-601
▁который	-602
▁вторник	-603
мент	-604
шение	-605
▁коман	-606
яв	-607
▁200	-608
▁обра	-609
▁представитель	-610
▁феде	-611
▁футбо	-612
▁четверг	-613
▁9	-614
пы	-615
держа	-616
чс	-617
ске	-618
▁помо	-619
▁информа	-620
сед	-621
▁управ	-622
нали	-623
сно	-624
служ	-625
▁заявил	-626
▁ла	-627
▁откры	-628
▁вто	-629
вд	-630
▁свя	-631
▁понедельник	-632
нова	-633
▁пе	-634
▁столи	-635
▁чис	-636
ными	-637
▁,	-638
зе	-639
пас	-640
рос	-641
ил	-642
▁были	-643
▁12	-644
ар	-645
▁пятницу	-646
шего	-647
вших	-648
▁было	-649
▁пи	-650
▁дру	-651
▁11	-652
шло	-653
▁дву	-654
кан	-655
▁ранее	-656
▁лю	-657
▁след	-658
тельства	-659
▁фев	-660
▁чемпиона	-661
моби	-662
▁исто	-663
▁два	-664
ству	-665
▁президент	-666
ена	-667
▁ад	-668
▁глав	-669
йте	-670
фер	-671
▁гос	-672
▁же	-673
рес	-674
▁ква	-675
шел	-676
ствия	-677
▁пло	-678
ках	-679
▁собе	-680
▁собесед	-681
сты	-682
▁компа	-683
▁отмет	-684
▁мину	-685
▁которые	-686
▁автомоби	-687
▁будут	-688
,5	-689
ением	-690
▁офи	-691
▁может	-692
стве	-693
▁мчс	-694
▁сбор	-695
▁груп	-696
жение	-697
чита	-698
▁глава	-699
▁вопро	-700
ному	-701
▁алекс	-702
▁пя	-703
▁москов	-704
▁результате	-705
лан	-706
▁еще	-707
▁ло	-708
хра	-709
онов	-710
▁рас	-711
судар	-712
точ	-713
▁уже	-714
▁оп	-715
▁мед	-716
лн	-717
▁мая	-718
▁погиб	-719
ций	-720
▁три	-721
ены	-722
зда	-723
сков	-724
▁без	-725
цев	-726
рон	-727
▁города	-728
▁один	-729
▁мы	-730
▁участ	-731
▁спе	-732
01	-733
▁власти	-734
▁органи	-735
жения	-736
▁ха	-737
▁воен	-738
клю	-739
▁взры	-740
▁государ	-741
▁пол	-742
▁фа	-743
жден	-744
нес	-745
седа	-746
тиче	-747
ья	-748
ети	-749
▁петербур	-750
грам	-751
ропо	-752
вест	-753
народ	-754
ступ	-755
ступи	-756
емы	-757
▁тор	-758
▁строи	-759
тали	-760
лья	-761
▁14	-762
▁мск	-763
▁находи	-764
анд	-765
▁иг	-766
рий	-767
▁суб	-768
▁состоя	-769
бра	-770
ин	-771
▁новы	-772
нистра	-773
▁13	-774
▁ус	-775
▁приня	-776
ье	-777
ших	-778
вший	-779
вой	-780
при	-781
вод	-782
али	-783
▁фина	-784
нер	-785
▁счет	-786
зва	-787
пра	-788
▁площа	-789
гда	-790
▁лу	-791
дей	-792
▁медве	-793
▁собеседник	-794
дол	-795
▁право	-796
▁этом	-797
▁дома	-798
гов	-799
ряд	-800
▁созда	-801
бер	-802
кто	-803
▁s	-804
▁двух	-805
▁жур	-806
▁бан	-807
спорт	-808
▁мест	-809
▁18	-810
▁коми	-811
год	-812
▁30	-813
▁сред	-814
▁согла	-815
▁ули	-816
нем	-817
▁ги	-818
ферен	-819
▁подо	-820
▁плани	-821
кономи	-822
вает	-823
.00	-824
зд	-825
▁0	-826
▁теле	-827
▁международ	-828
▁работа	-829
публи	-830
▁17	-831
лем	-832
▁путин	-833
▁16	-834
рован	-835
держ	-836
▁послед	-837
▁доро	-838
дента	-839
▁где	-840
ниче	-841
▁ран	-842
▁минист	-843
рах	-844
тии	-845
▁участи	-846
▁первы	-847
an	-848
кла	-849
овой	-850
зов	-851
▁день	-852
дитель	-853
ским	-854
▁выбо	-855
щен	-856
фе	-857
▁медведе	-858
▁аэ	-859
▁стол	-860
тре	-861
чения	-862
▁которо	-863
▁челове	-864
▁украины	-865
▁слу	-866
▁ры	-867
▁ше	-868
▁завер	-869
▁25	-870
рито	-871
▁официаль	-872
▁долж	-873
вое	-874
ставля	-875
▁испо	-876
виа	-877
▁оста	-878
▁счита	-879
▁погибли	-880
▁сан	-881
▁владими	-882
▁сле	-883
▁журнали	-884
▁районе	-885
er	-886
▁рей	-887
▁обо	-888
▁жен	-889
▁гражда	-890
▁террито	-891
▁место	-892
▁пожар	-893
стро	-894
▁их	-895
▁ша	-896
▁турни	-897
▁состави	-898
нитель	-899
▁пока	-900
▁фран	-901
▁рес	-902
вать	-903
мента	-904
▁дви	-905
▁разви	-906
ган	-907
▁ава	-908
▁тран	-909
▁тра	-910
лом	-911
▁кор	-912
▁против	-913
нет	-914
ему	-915
▁мин	-916
нию	-917
▁ап	-918
вля	-919
ьер	-920
мов	-921
тельство	-922
▁руково	-923
пол	-924
ссажи	-925
восто	-926
▁зда	-927
▁проек	-928
чь	-929
пла	-930
гут	-931
тп	-932
▁смо	-933
зации	-934
мени	-935
рд	-936
▁планиру	-937
▁зна	-938
▁ноя	-939
прия	-940
▁оч	-941
▁фо	-942
него	-943
▁экономи	-944
ман	-945
кту	-946
-201	-947
▁муж	-948
лага	-949
▁тысячи	-950
▁прой	-951
▁пассажи	-952
вил	-953
щего	-954
▁пов	-955
▁дтп	-956
▁продол	-957
▁опера	-958
стана	-959
▁суббо	-960
▁человека	-961
вели	-962
▁зем	-963
▁отно	-964
▁воск	-965
▁воскрес	-966
▁возмо	-967
▁четы	-968
кси	-969
▁прово	-970
рабо	-971
▁2011	-972
министра	-973
▁обла	-974
▁сми	-975
▁самолет	-976
ритель	-977
логи	-978
шей	-979
▁причи	-980
▁22	-981
▁ес	-982
▁обе	-983
щее	-984
▁сем	-985
дения	-986
▁неф	-987
чение	-988
шли	-989
лим	-990
▁федераль	-991
▁мира	-992
москов	-993
▁вос	-994
-1	-995
рту	-996
▁клу	-997
▁ее	-998
▁ок	-999
▁доба	-1000
▁авиа	-1001
▁програм	-1002
▁медведев	-1003
▁александ	-1004
лены	-1005
ское	-1006
▁мвд	-1007
▁воскресень	-1008
▁поч	-1009
ждения	-1010
▁прем	-1011
▁21	-1012
▁нет	-1013
жида	-1014
▁шко	-1015
▁зо	-1016
▁уго	-1017
роны	-1018
рей	-1019
▁дей	-1020
▁ут	-1021
▁переда	-1022
▁источ	-1023
▁дело	-1024
от	-1025
кта	-1026
▁страны	-1027
нару	-1028
▁дек	-1029
▁четыре	-1030
▁республи	-1031
▁кур	-1032
мери	-1033
ложи	-1034
▁тех	-1035
in	-1036
▁красно	-1037
▁поль	-1038
петербур	-1039
лови	-1040
ыгра	-1041
▁бли	-1042
▁установ	-1043
дели	-1044
▁уточ	-1045
▁эта	-1046
▁они	-1047
из	-1048
▁того	-1049
▁матче	-1050
ель	-1051
▁метров	-1052
▁уби	-1053
▁2012	-1054
▁чтобы	-1055
▁t	-1056
яс	-1057
щей	-1058
▁субботу	-1059
▁неско	-1060
рев	-1061
▁ду	-1062
туа	-1063
спа	-1064
стран	-1065
▁воскресенье	-1066
дь	-1067
▁отметил	-1068
нь	-1069
▁гру	-1070
лимпи	-1071
шении	-1072
▁мужчи	-1073
кре	-1074
▁c	-1075
▁тем	-1076
▁кило	-1077
▁город	-1078
▁год	-1079
▁миллиар	-1080
▁ведом	-1081
▁ито	-1082
▁следу	-1083
▁дека	-1084
мон	-1085
чного	-1086
цей	-1087
рева	-1088
нил	-1089
скую	-1090
▁ожида	-1091
▁ско	-1092
▁одна	-1093
смо	-1094
▁ти	-1095
тий	-1096
▁заяв	-1097
▁настоя	-1098
▁b	-1099
рая	-1100
ерт	-1101
писа	-1102
готов	-1103
▁23	-1104
вшего	-1105
▁янва	-1106
меча	-1107
зопас	-1108
кого	-1109
нин	-1110
▁подмосков	-1111
▁или	-1112
▁уда	-1113
льного	-1114
ледова	-1115
▁матч	-1116
ктор	-1117
▁сни	-1118
▁столк	-1119
▁проис	-1120
лено	-1121
▁a	-1122
▁24	-1123
кова	-1124
▁задержа	-1125
▁ситуа	-1126
рти	-1127
бир	-1128
ствова	-1129
дела	-1130
тных	-1131
▁други	-1132
▁обще	-1133
▁была	-1134
▁служ	-1135
▁сайте	-1136
▁круп	-1137
▁подоз	-1138
▁сент	-1139
▁обсу	-1140
▁президента	-1141
рин	-1142
кин	-1143
ступа	-1144
нах	-1145
шин	-1146
▁уголов	-1147
▁эле	-1148
▁спа	-1149
▁амери	-1150
цент	-1151
▁комп	-1152
▁агентство	-1153
ссии	-1154
▁свои	-1155
нич	-1156
▁обнару	-1157
стам	-1158
▁безопас	-1159
▁сообщила	-1160
▁региональ	-1161
конферен	-1162
▁сен	-1163
▁управления	-1164
▁над	-1165
тки	-1166
нец	-1167
▁только	-1168
▁перво	-1169
▁дми	-1170
цу	-1171
▁связи	-1172
▁эти	-1173
▁стать	-1174
▁проб	-1175
▁кру	-1176
▁явля	-1177
▁аэропо	-1178
▁премьер	-1179
▁провер	-1180
льту	-1181
▁m	-1182
▁чемпионата	-1183
над	-1184
▁сей	-1185
чер	-1186
▁владимир	-1187
▁дела	-1188
▁посе	-1189
▁соб	-1190
шо	-1191
спек	-1192
▁фон	-1193
лена	-1194
час	-1195
▁распо	-1196
фа	-1197
▁отмеча	-1198
▁мэ	-1199
▁защи	-1200
лек	-1201
циональ	-1202
▁информации	-1203
гей	-1204
▁заверши	-1205
▁полиции	-1206
тие	-1207
▁детей	-1208
▁доллара	-1209
▁стал	-1210
▁эк	-1211
▁месте	-1212
▁w	-1213
▁пострадавших	-1214
дра	-1215
▁произошло	-1216
ссе	-1217
ремен	-1218
бира	-1219
▁региона	-1220
шла	-1221
▁бю	-1222
▁этого	-1223
▁чере	-1224
▁26	-1225
нской	-1226
▁28	-1227
▁обви	-1228
▁p	-1229
▁тури	-1230
▁района	-1231
ческой	-1232
▁администра	-1233
on	-1234
дой	-1235
дит	-1236
тельно	-1237
en	-1238
▁иск	-1239
▁ходе	-1240
тро	-1241
▁источник	-1242
▁27	-1243
,2	-1244
▁2013	-1245
▁возбу	-1246
▁увели	-1247
зя	-1248
▁могут	-1249
▁полицей	-1250
▁миллиона	-1251
▁сергей	-1252
ходя	-1253
ева	-1254
варитель	-1255
ких	-1256
▁произ	-1257
▁территории	-1258
▁возмож	-1259
кро	-1260
▁готов	-1261
▁нару	-1262
▁апр	-1263
▁олимпи	-1264
▁работы	-1265
▁фор	-1266
ницы	-1267
▁совер	-1268
сла	-1269
▁элект	-1270
▁прог	-1271
лении	-1272
▁призна	-1273
▁2010	-1274
пад	-1275
▁млн	-1276
чно	-1277
▁кры	-1278
▁основ	-1279
▁предваритель	-1280
▁бое	-1281
es	-1282
▁янв	-1283
▁ри	-1284
▁(1	-1285
▁пун	-1286
ющий	-1287
▁ск	-1288
▁которая	-1289
стей	-1290
тора	-1291
чу	-1292
шая	-1293
▁апре	-1294
▁быть	-1295
▁экспер	-1296
▁окру	-1297
▁компании	-1298
▁километ	-1299
▁показа	-1300
конча	-1301
▁рам	-1302
▁несколько	-1303
▁бра	-1304
стои	-1305
стя	-1306
,4	-1307
▁ци	-1308
▁необ	-1309
▁долларов	-1310
вается	-1311
▁заседа	-1312
▁трех	-1313
скому	-1314
ar	-1315
▁которого	-1316
▁она	-1317
▁авг	-1318
вали	-1319
▁моло	-1320
тя	-1321
▁тен	-1322
бен	-1323
льной	-1324
▁счетом	-1325
щих	-1326
строй	-1327
льный	-1328
них	-1329
▁решение	-1330
лия	-1331
ат	-1332
▁направ	-1333
▁режи	-1334
лин	-1335
▁июл	-1336
▁подготов	-1337
ровать	-1338
▁i	-1339
емо	-1340
▁мид	-1341
охра	-1342
▁всего	-1343
▁женщи	-1344
▁сист	-1345
▁трав	-1346
▁миллионов	-1347
▁помощ	-1348
зии	-1349
ками	-1350
стру	-1351
мести	-1352
▁29	-1353
▁февра	-1354
гро	-1355
▁сро	-1356
▁пострадали	-1357
▁сборной	-1358
▁числе	-1359
▁севе	-1360
▁американ	-1361
,3	-1362
▁участие	-1363
or	-1364
▁виде	-1365
▁них	-1366
бре	-1367
▁восто	-1368
▁трен	-1369
пута	-1370
▁вс	-1371
дии	-1372
дж	-1373
бан	-1374
▁дире	-1375
▁ино	-1376
▁каза	-1377
▁дмитри	-1378
▁оче	-1379
рации	-1380
▁насе	-1381
еры	-1382
▁журналистам	-1383
▁оказа	-1384
фо	-1385
▁составля	-1386
▁рамках	-1387
▁це	-1388
▁пройдет	-1389
▁бар	-1390
спе	-1391
▁государствен	-1392
▁июн	-1393
▁добавил	-1394
▁автобу	-1395
▁меся	-1396
▁уров	-1397
▁правоохра	-1398
▁прода	-1399
▁стан	-1400
▁считает	-1401
гли	-1402
▁вой	-1403
прави	-1404
тай	-1405
▁правительства	-1406
▁интер	-1407
▁сейчас	-1408
▁почти	-1409
▁александр	-1410
▁ал	-1411
вают	-1412
ница	-1413
▁ответ	-1414
▁совет	-1415
льных	-1416
вшие	-1417
▁кри	-1418
▁настоящее	-1419
▁высо	-1420
▁бри	-1421
▁комит	-1422
▁декабря	-1423
▁взрыв	-1424
▁треть	-1425
▁газ	-1426
▁авгу	-1427
▁r	-1428
▁закры	-1429
чной	-1430
▁ну	-1431
▁безопасности	-1432
▁л	-1433
▁жиз	-1434
▁продолжа	-1435
▁вече	-1436
▁произошел	-1437
▁голо	-1438
▁задерж	-1439
▁граждан	-1440
рованы	-1441
имо	-1442
▁городе	-1443
▁прибы	-1444
▁им	-1445
дина	-1446
служба	-1447
▁необходи	-1448
▁происше	-1449
кет	-1450
город	-1451
▁жерт	-1452
▁анд	-1453
▁мате	-1454
▁бело	-1455
▁первый	-1456
▁деся	-1457
▁сезо	-1458
▁марта	-1459
цией	-1460
▁назна	-1461
▁культу	-1462
ющих	-1463
,7	-1464
▁которых	-1465
рко	-1466
,6	-1467
тура	-1468
▁националь	-1469
▁госпи	-1470
дить	-1471
▁доку	-1472
ствие	-1473
▁подозрева	-1474
▁через	-1475
▁депута	-1476
▁n	-1477
роприя	-1478
ностью	-1479
▁объек	-1480
▁закон	-1481
кам	-1482
сова	-1483
▁заклю	-1484
▁главы	-1485
пози	-1486
▁однако	-1487
▁нов	-1488
гам	-1489
▁хок	-1490
петербург	-1491
▁неиз	-1492
пусти	-1493
тан	-1494
▁тенни	-1495
вести	-1496
▁биз	-1497
▁много	-1498
ложен	-1499
шие	-1500
▁части	-1501
▁кре	-1502
▁тя	-1503
годня	-1504
▁сентября	-1505
▁собы	-1506
▁луч	-1507
▁октября	-1508
лез	-1509
▁мероприя	-1510
▁вырос	-1511
ых	-1512
сибир	-1513
▁центре	-1514
щий	-1515
▁гор	-1516
дил	-1517
▁дня	-1518
тики	-1519
ствую	-1520
▁места	-1521
▁рассказа	-1522
,1	-1523
▁прошло	-1524
▁преду	-1525
кции	-1526
▁правоохранитель	-1527
мар	-1528
:1	-1529
▁января	-1530
▁осу	-1531
▁кан	-1532
▁финан	-1533
▁российской	-1534
жной	-1535
▁июля	-1536
▁самы	-1537
▁ря	-1538
▁сообщили	-1539
▁ноября	-1540
чка	-1541
▁вне	-1542
▁преступ	-1543
▁организа	-1544
▁дмитрий	-1545
раз	-1546
хов	-1547
▁проку	-1548
чных	-1549
лаго	-1550
▁перегово	-1551
ответ	-1552
службы	-1553
слу	-1554
еха	-1555
щения	-1556
▁всех	-1557
▁когда	-1558
30	-1559
▁улице	-1560
▁неизвест	-1561
пло	-1562
▁получили	-1563
▁разме	-1564
▁нас	-1565
▁ген	-1566
▁шта	-1567
▁ребен	-1568
ового	-1569
▁случа	-1570
▁второй	-1571
рио	-1572
▁аре	-1573
▁маши	-1574
▁число	-1575
▁100	-1576
ходит	-1577
al	-1578
ший	-1579
,8	-1580
▁пост	-1581
▁июня	-1582
цен	-1583
▁занима	-1584
шед	-1585
град	-1586
ним	-1587
ческого	-1588
нал	-1589
▁состои	-1590
чил	-1591
▁соответ	-1592
▁лег	-1593
▁вечером	-1594
▁тро	-1595
ун	-1596
▁задержан	-1597
▁меди	-1598
▁столицы	-1599
▁обеспе	-1600
▁2014	-1601
овых	-1602
▁ведомства	-1603
it	-1604
игра	-1605
▁встреча	-1606
лож	-1607
сит	-1608
нут	-1609
▁пять	-1610
▁перед	-1611
▁наб	-1612
▁парла	-1613
▁даль	-1614
▁ге	-1615
▁госпитали	-1616
▁аф	-1617
▁сирии	-1618
▁вопрос	-1619
▁фото	-1620
▁f	-1621
▁февраля	-1622
▁новосибир	-1623
▁команды	-1624
▁россиян	-1625
жай	-1626
▁полиция	-1627
▁есть	-1628
▁момент	-1629
▁гре	-1630
▁является	-1631
▁среди	-1632
вед	-1633
▁поз	-1634
чат	-1635
▁нор	-1636
пей	-1637
▁поез	-1638
▁сай	-1639
▁предпо	-1640
кви	-1641
нами	-1642
▁апреля	-1643
▁рассмо	-1644
▁убий	-1645
▁шо	-1646
яр	-1647
нен	-1648
▁неза	-1649
торы	-1650
▁энер	-1651
циали	-1652
le	-1653
▁име	-1654
щем	-1655
▁част	-1656
▁спи	-1657
▁кол	-1658
▁кро	-1659
▁31	-1660
▁эва	-1661
▁пожара	-1662
ческих	-1663
берна	-1664
▁которой	-1665
▁футболи	-1666
▁рын	-1667
▁япо	-1668
▁петербурге	-1669
▁состоится	-1670
твер	-1671
▁погибших	-1672
▁образова	-1673
▁спаса	-1674
▁свобо	-1675
тен	-1676
▁сыгра	-1677
мой	-1678
▁возду	-1679
дили	-1680
▁пет	-1681
▁спор	-1682
нения	-1683
▁водитель	-1684
зом	-1685
▁d	-1686
▁g	-1687
▁извест	-1688
нок	-1689
▁сочи	-1690
дителя	-1691
▁нарко	-1692
пар	-1693
ссия	-1694
стер	-1695
▁эваку	-1696
▁следствен	-1697
▁происшествия	-1698
▁сотрудники	-1699
▁вет	-1700
▁вме	-1701
▁50	-1702
▁граду	-1703
▁прод	-1704
▁зам	-1705
нского	-1706
▁ира	-1707
▁официальный	-1708
▁исполь	-1709
кие	-1710
▁еди	-1711
чены	-1712
▁тяже	-1713
▁повы	-1714
▁ог	-1715
▁предо	-1716
▁мили	-1717
ред	-1718
рва	-1719
▁ива	-1720
ряс	-1721
графи	-1722
▁республики	-1723
лка	-1724
вле	-1725
▁председа	-1726
▁госпитализи	-1727
▁намер	-1728
▁соста	-1729
вые	-1730
ровали	-1731
▁нико	-1732
▁вели	-1733
тон	-1734
▁подтвер	-1735
▁воро	-1736
▁кварти	-1737
ич	-1738
▁владивосто	-1739
ору	-1740
▁ху	-1741
▁этот	-1742
▁ближай	-1743
пада	-1744
▁прогно	-1745
,9	-1746
%,	-1747
▁уч	-1748
▁законо	-1749
тар	-1750
▁больше	-1751
рина	-1752
▁федерации	-1753
мя	-1754
▁итогам	-1755
▁специали	-1756
▁подро	-1757
▁белору	-1758
▁августа	-1759
льно	-1760
▁турнира	-1761
▁заня	-1762
▁замести	-1763
▁рубля	-1764
▁вра	-1765
▁ана	-1766
▁стали	-1767
▁хи	-1768
телем	-1769
▁киев	-1770
▁пен	-1771
▁увеличи	-1772
▁инци	-1773
▁этой	-1774
▁сам	-1775
▁оппози	-1776
летний	-1777
▁матча	-1778
зан	-1779
▁бир	-1780
▁обществен	-1781
▁пробле	-1782
▁должны	-1783
▁европы	-1784
▁гер	-1785
▁новый	-1786
рель	-1787
▁прав	-1788
▁чу	-1789
сан	-1790
нению	-1791
▁материа	-1792
▁празд	-1793
зер	-1794
▁часть	-1795
▁пяти	-1796
▁миллиарда	-1797
▁обя	-1798
▁людей	-1799
бой	-1800
▁украине	-1801
▁дом	-1802
▁оон	-1803
▁назва	-1804
парта	-1805
▁сегодня	-1806
чный	-1807
▁север	-1808
▁жителей	-1809
▁перио	-1810
▁сдела	-1811
▁ночь	-1812
▁угро	-1813
▁двое	-1814
▁дости	-1815
▁центра	-1816
жного	-1817
▁выступа	-1818
▁службы	-1819
▁огра	-1820
▁суда	-1821
бова	-1822
▁вол	-1823
▁краснояр	-1824
▁наде	-1825
▁контра	-1826
▁конку	-1827
вра	-1828
▁(2	-1829
кий	-1830
▁аварии	-1831
▁находя	-1832
ru	-1833
вор	-1834
▁кар	-1835
нул	-1836
▁квадра	-1837
▁составляет	-1838
ющие	-1839
▁министер	-1840
еди	-1841
▁стран	-1842
рует	-1843
▁если	-1844
▁находится	-1845
▁уголовное	-1846
▁сви	-1847
▁40	-1848
нием	-1849
▁бал	-1850
▁подписа	-1851
▁куб	-1852
льные	-1853
▁пода	-1854
▁губерна	-1855
▁площади	-1856
кун	-1857
▁госду	-1858
пал	-1859
сад	-1860
лай	-1861
той	-1862
▁ссы	-1863
доро	-1864
ia	-1865
▁игра	-1866
▁кроме	-1867
▁северо	-1868
летряс	-1869
▁утром	-1870
▁времени	-1871
▁сконча	-1872
▁восстанов	-1873
шее	-1874
▁контро	-1875
там	-1876
ссо	-1877
▁мл	-1878
лон	-1879
дида	-1880
бя	-1881
▁работу	-1882
▁землетряс	-1883
▁иностран	-1884
▁санкт	-1885
личе	-1886
▁млрд	-1887
▁чер	-1888
▁поступи	-1889
▁правительство	-1890
▁примо	-1891
ким	-1892
ружи	-1893
▁дж	-1894
конференция	-1895
▁получил	-1896
▁неде	-1897
▁реали	-1898
няя	-1899
▁одного	-1900
▁столкнов	-1901
того	-1902
▁две	-1903
▁работ	-1904
сом	-1905
ктов	-1906
матри	-1907
▁гене	-1908
лета	-1909
шений	-1910
чные	-1911
▁домов	-1912
ндо	-1913
ждено	-1914
▁гро	-1915
▁спортив	-1916
▁секун	-1917
▁благо	-1918
:2	-1919
▁развития	-1920
стри	-1921
▁кандида	-1922
щение	-1923
вая	-1924
▁сек	-1925
ie	-1926
▁исп	-1927
▁борь	-1928
▁пара	-1929
нев	-1930
▁российских	-1931
▁ликви	-1932
▁клуба	-1933
▁услови	-1934
▁централь	-1935
▁планирует	-1936
мии	-1937
циа	-1938
бов	-1939
▁выигра	-1940
▁реко	-1941
▁опре	-1942
▁квадратных	-1943
шенко	-1944
▁олимпий	-1945
лкой	-1946
воз	-1947
▁свою	-1948
▁нау	-1949
▁пути	-1950
▁дея	-1951
▁министр	-1952
стива	-1953
рию	-1954
▁обнаружен	-1955
▁гум	-1956
тник	-1957
▁курс	-1958
▁совета	-1959
▁потер	-1960
▁хозя	-1961
лии	-1962
▁сообщается	-1963
▁семь	-1964
▁торгов	-1965
ить	-1966
▁видео	-1967
▁ради	-1968
▁поддерж	-1969
▁лидер	-1970
▁оператив	-1971
ктора	-1972
▁факту	-1973
▁предварительным	-1974
▁метро	-1975
чей	-1976
гип	-1977
ленных	-1978
▁запре	-1979
▁очень	-1980
ню	-1981
вии	-1982
▁спорт	-1983
прово	-1984
▁российского	-1985
▁сум	-1986
▁департа	-1987
▁верну	-1988
компа	-1989
ыта	-1990
хода	-1991
стане	-1992
чки	-1993
гии	-1994
еров	-1995
лением	-1996
ревнова	-1997
▁помощи	-1998
▁l	-1999
▁количе	-2000
▁днем	-2001
5-	-2002
▁появи	-2003
лега	-2004
▁миха	-2005
щая	-2006
▁снизи	-2007
рит	-2008
▁боеви	-2009
бин	-2010
▁смер	-2011
▁социаль	-2012
▁соревнова	-2013
▁футболу	-2014
▁свое	-2015
екта	-2016
▁ссылкой	-2017
▁инте	-2018
ством	-2019
мина	-2020
▁жа	-2021
соб	-2022
каз	-2023
шки	-2024
йм	-2025
▁события	-2026
зем	-2027
фина	-2028
вш	-2029
▁прокура	-2030
рования	-2031
.-	-2032
фф	-2033
тр	-2034
▁отношении	-2035
▁егип	-2036
▁градусов	-2037
▁потре	-2038
▁московской	-2039
хл	-2040
▁следова	-2041
нице	-2042
▁делу	-2043
кате	-2044
мыш	-2045
лети	-2046
ху	-2047
▁состав	-2048
номо	-2049
рори	-2050
▁культуры	-2051
▁сказала	-2052
▁организации	-2053
▁возбуждено	-2054
▁рассказал	-2055
▁испол	-2056
▁стоимо	-2057
50	-2058
вли	-2059
▁сокра	-2060
▁началь	-2061
▁других	-2062
▁начала	-2063
▁здания	-2064
дий	-2065
▁движение	-2066
сии	-2067
▁сайт	-2068
ляр	-2069
▁кли	-2070
▁необходимо	-2071
льчи	-2072
тить	-2073
работа	-2074
един	-2075
▁газа	-2076
ждение	-2077
▁тыс	-2078
вал	-2079
▁поло	-2080
▁сне	-2081
at	-2082
боль	-2083
▁строительство	-2084
▁воору	-2085
▁мужчина	-2086
рами	-2087
▁конкур	-2088
▁экономики	-2089
▁превы	-2090
шим	-2091
▁пои	-2092
ема	-2093
:0	-2094
ток	-2095
минист	-2096
▁проце	-2097
▁российский	-2098
▁сотрудниче	-2099
▁лондо	-2100
▁выборах	-2101
▁производ	-2102
раи	-2103
▁поряд	-2104
рил	-2105
тельных	-2106
▁одной	-2107
ющей	-2108
▁данные	-2109
веден	-2110
il	-2111
тельной	-2112
▁позво	-2113
смен	-2114
дви	-2115
няется	-2116
▁оба	-2117
▁комитета	-2118
▁победу	-2119
▁най	-2120
▁оружи	-2121
тем	-2122
▁пропа	-2123
▁жизни	-2124
▁расследова	-2125
▁украин	-2126
▁став	-2127
это	-2128
▁использова	-2129
▁программы	-2130
ях	-2131
спорта	-2132
▁вице	-2133
▁сту	-2134
▁пункта	-2135
хва	-2136
джет	-2137
зени	-2138
▁группы	-2139
динамо	-2140
лит	-2141
.30	-2142
▁филь	-2143
▁сере	-2144
▁кино	-2145
ститу	-2146
▁верто	-2147
▁взрыва	-2148
▁конце	-2149
▁инф	-2150
▁тренер	-2151
вобо	-2152
бро	-2153
▁ракет	-2154
держи	-2155
ян	-2156
▁пассажиров	-2157
▁площад	-2158
▁столкну	-2159
▁второ	-2160
▁выра	-2161
▁деятель	-2162
▁можно	-2163
▁кла	-2164
▁проводи	-2165
▁спец	-2166
боле	-2167
▁нач	-2168
▁тру	-2169
▁документ	-2170
▁проду	-2171
▁фонд	-2172
гора	-2173
скими	-2174
▁эвакуи	-2175
щие	-2176
декс	-2177
ок	-2178
▁течение	-2179
▁h	-2180
%.	-2181
овые	-2182
били	-2183
▁чп	-2184
▁сте	-2185
▁федерального	-2186
▁стро	-2187
▁тон	-2188
▁отде	-2189
▁государства	-2190
▁выяс	-2191
▁себя	-2192
▁екате	-2193
as	-2194
▁уни	-2195
▁достав	-2196
▁своей	-2197
рак	-2198
▁2009	-2199
▁девя	-2200
▁органах	-2201
тиво	-2202
▁отказа	-2203
лог	-2204
▁партии	-2205
▁позд	-2206
▁крае	-2207
бай	-2208
чить	-2209
тарь	-2210
▁уси	-2211
▁автомобиля	-2212
▁утвер	-2213
▁составе	-2214
сам	-2215
нам	-2216
вар	-2217
20	-2218
кут	-2219
▁израи	-2220
▁большо	-2221
▁руковод	-2222
▁золо	-2223
▁четырех	-2224
гни	-2225
▁хокке	-2226
▁шесть	-2227
▁регионального	-2228
▁андрей	-2229
▁чемпионате	-2230
▁алексей	-2231
▁каж	-2232
талья	-2233
▁пора	-2234
▁военно	-2235
жных	-2236
▁бере	-2237
▁гон	-2238
▁проект	-2239
▁расположен	-2240
лению	-2241
станавли	-2242
▁o	-2243
спарта	-2244
▁прекра	-2245
▁пози	-2246
▁марш	-2247
локо	-2248
▁автомобиль	-2249
▁даге	-2250
▁герма	-2251
ус	-2252
▁догово	-2253
лых	-2254
▁повре	-2255
▁кам	-2256
вен	-2257
▁фестива	-2258
мышлен	-2259
▁успе	-2260
ro	-2261
▁ир	-2262
▁коро	-2263
ником	-2264
▁предприя	-2265
▁каче	-2266
▁ост	-2267
▁отмечается	-2268
ческий	-2269
▁вклю	-2270
ic	-2271
▁ши	-2272
▁макси	-2273
▁отмети	-2274
нг	-2275
▁нового	-2276
пли	-2277
▁кубка	-2278
▁выстав	-2279
▁предлага	-2280
▁спорта	-2281
▁российские	-2282
реги	-2283
▁подмосковье	-2284
пита	-2285
▁мино	-2286
еща	-2287
▁компания	-2288
▁гол	-2289
▁стала	-2290
▁игро	-2291
нили	-2292
▁согласно	-2293
▁мага	-2294
▁лени	-2295
▁разли	-2296
▁собра	-2297
▁бюджет	-2298
▁медици	-2299
хран	-2300
▁округа	-2301
лев	-2302
кция	-2303
▁лиги	-2304
▁цен	-2305
▁группа	-2306
▁избира	-2307
▁времен	-2308
▁ль	-2309
▁взя	-2310
▁стране	-2311
▁роди	-2312
тно	-2313
▁чита	-2314
▁реа	-2315
▁пого	-2316
никами	-2317
▁ростов	-2318
is	-2319
▁дел	-2320
▁посети	-2321
▁член	-2322
казы	-2323
дд	-2324
▁поме	-2325
▁движения	-2326
▁темпера	-2327
▁специаль	-2328
▁мене	-2329
▁ву	-2330
▁e	-2331
енко	-2332
рам	-2333
▁вместе	-2334
▁передает	-2335
ющего	-2336
▁удалось	-2337
ствуют	-2338
us	-2339
▁срав	-2340
▁лес	-2341
▁похи	-2342
лье	-2343
▁телека	-2344
▁ему	-2345
▁стоимость	-2346
▁зи	-2347
фика	-2348
дия	-2349
▁желез	-2350
ганов	-2351
▁шве	-2352
ссий	-2353
▁ранения	-2354
▁доме	-2355
кая	-2356
▁освобо	-2357
гор	-2358
ген	-2359
вшая	-2360
▁станции	-2361
ol	-2362
▁возгора	-2363
▁него	-2364
емых	-2365
▁центр	-2366
▁ката	-2367
мест	-2368
дро	-2369
▁род	-2370
пов	-2371
тной	-2372
▁реши	-2373
▁маршру	-2374
▁ассо	-2375
▁сборная	-2376
бри	-2377
▁помощь	-2378
смот	-2379
▁сою	-2380
▁свободы	-2381
▁цска	-2382
▁франции	-2383
жу	-2384
▁юго	-2385
▁выход	-2386
доров	-2387
▁оа	-2388
пере	-2389
▁составила	-2390
▁планируется	-2391
вания	-2392
дение	-2393
▁стороны	-2394
▁края	-2395
▁тю	-2396
ченко	-2397
▁чего	-2398
лений	-2399
▁неко	-2400
▁должен	-2401
▁францу	-2402
▁зако	-2403
▁ожидается	-2404
▁управление	-2405
▁свет	-2406
▁обвиня	-2407
▁принима	-2408
сут	-2409
▁актив	-2410
ственной	-2411
чном	-2412
▁победи	-2413
ot	-2414
▁больницу	-2415
▁свидет	-2416
▁администрации	-2417
▁привле	-2418
▁котором	-2419
▁нем	-2420
▁аль	-2421
тили	-2422
▁сообщалось	-2423
▁нефть	-2424
▁состоянии	-2425
▁ом	-2426
▁ремон	-2427
мом	-2428
наб	-2429
▁пострадал	-2430
▁миллиардов	-2431
▁дево	-2432
вшей	-2433
читы	-2434
строи	-2435
▁возгла	-2436
сою	-2437
▁террори	-2438
▁европей	-2439
▁заседании	-2440
▁масс	-2441
рю	-2442
ваются	-2443
▁конца	-2444
▁сы	-2445
рье	-2446
лий	-2447
езд	-2448
тый	-2449
▁транспорт	-2450
▁акции	-2451
баров	-2452
▁попы	-2453
▁зада	-2454
эта	-2455
▁кита	-2456
тельные	-2457
конференции	-2458
бар	-2459
▁призва	-2460
▁противо	-2461
▁авиакомпа	-2462
▁акций	-2463
▁универ	-2464
▁ат	-2465
ровано	-2466
форми	-2467
ябре	-2468
▁первого	-2469
▁диа	-2470
,0	-2471
▁обру	-2472
▁нео	-2473
▁опас	-2474
жили	-2475
ровал	-2476
▁регу	-2477
вел	-2478
мур	-2479
▁попа	-2480
лого	-2481
▁сотрудников	-2482
▁магни	-2483
▁встречи	-2484
▁минут	-2485
▁лав	-2486
▁средств	-2487
това	-2488
▁обыгра	-2489
▁прио	-2490
▁директор	-2491
▁часов	-2492
▁интернет	-2493
▁измен	-2494
▁199	-2495
министр	-2496
▁прайм	-2497
▁первом	-2498
▁полностью	-2499
вез	-2500
дят	-2501
▁отра	-2502
люда	-2503
▁ребенка	-2504
▁шах	-2505
сли	-2506
▁буду	-2507
▁наза	-2508
первые	-2509
▁строительства	-2510
▁внут	-2511
ит	-2512
▁объяви	-2513
▁корре	-2514
▁вопросы	-2515
ra	-2516
▁московского	-2517
ствует	-2518
▁объем	-2519
▁предполага	-2520
▁крупней	-2521
ter	-2522
хан	-2523
▁народ	-2524
чении	-2525
метров	-2526
фици	-2527
бдд	-2528
▁новых	-2529
▁посо	-2530
нение	-2531
▁своем	-2532
▁конф	-2533
▁там	-2534
▁постав	-2535
▁воды	-2536
▁ситуации	-2537
газ	-2538
▁запа	-2539
рую	-2540
▁проспек	-2541
ществ	-2542
▁кто	-2543
▁аб	-2544
тию	-2545
▁предложи	-2546
▁выборов	-2547
▁устанавли	-2548
нить	-2549
пуск	-2550
ено	-2551
овом	-2552
▁хоро	-2553
тами	-2554
руют	-2555
▁трое	-2556
нский	-2557
▁соверши	-2558
бил	-2559
▁срок	-2560
▁индекс	-2561
▁бизне	-2562
▁митин	-2563
▁сти	-2564
▁пользу	-2565
▁спортсмен	-2566
▁права	-2567
горе	-2568
бло	-2569
▁впервые	-2570
они	-2571
▁петербург	-2572
▁нака	-2573
▁департамента	-2574
▁идет	-2575
▁внутрен	-2576
▁рождения	-2577
лах	-2578
тур	-2579
▁май	-2580
муще	-2581
▁испа	-2582
▁незакон	-2583
емого	-2584
▁эки	-2585
емый	-2586
▁сама	-2587
▁скончался	-2588
йти	-2589
▁проведения	-2590
▁вызва	-2591
▁выборы	-2592
нологи	-2593
▁хабаров	-2594
▁теку	-2595
▁мно	-2596
▁произошла	-2597
▁бизнес	-2598
▁пассажир	-2599
▁годы	-2600
▁област	-2601
▁китай	-2602
▁учре	-2603
▁останов	-2604
вых	-2605
▁петербурга	-2606
▁пору	-2607
энер	-2608
▁инвести	-2609
▁порядка	-2610
▁тр	-2611
▁самолета	-2612
▁жертв	-2613
ch	-2614
тера	-2615
нд	-2616
поли	-2617
▁меда	-2618
защи	-2619
▁поки	-2620
▁период	-2621
▁стади	-2622
ствовать	-2623
▁нужно	-2624
▁поку	-2625
▁стало	-2626
▁площадь	-2627
гру	-2628
▁станет	-2629
▁востоке	-2630
▁политиче	-2631
▁бер	-2632
ьез	-2633
▁рейтин	-2634
▁суде	-2635
▁жилья	-2636
▁команда	-2637
тече	-2638
ствий	-2639
▁конфли	-2640
▁область	-2641
▁банка	-2642
▁нефти	-2643
▁столице	-2644
▁аэропорта	-2645
▁исклю	-2646
▁инцидент	-2647
бороны	-2648
▁мероприятия	-2649
▁мирово	-2650
▁находятся	-2651
▁итали	-2652
шь	-2653
▁отстав	-2654
▁участники	-2655
зин	-2656
джета	-2657
▁другие	-2658
▁кос	-2659
лете	-2660
▁менее	-2661
рги	-2662
летнего	-2663
проек	-2664
▁проте	-2665
гани	-2666
▁экипа	-2667
▁охра	-2668
▁рост	-2669
▁победы	-2670
▁60	-2671
▁ниже	-2672
стом	-2673
россий	-2674
▁очков	-2675
▁обяза	-2676
▁разре	-2677
▁ограни	-2678
▁подроб	-2679
говори	-2680
▁нато	-2681
▁мир	-2682
ктиче	-2683
▁цик	-2684
пом	-2685
▁брази	-2686
ce	-2687
▁сообщение	-2688
▁сторо	-2689
▁совмест	-2690
▁посвя	-2691
▁скоро	-2692
горо	-2693
тил	-2694
▁дней	-2695
зма	-2696
▁спу	-2697
▁ранены	-2698
▁очере	-2699
▁ответствен	-2700
▁начале	-2701
▁отмен	-2702
▁своих	-2703
▁арен	-2704
▁читайте	-2705
вета	-2706
щении	-2707
тех	-2708
чая	-2709
▁опреде	-2710
▁допол	-2711
▁суще	-2712
▁олимпиа	-2713
▁арест	-2714
▁частности	-2715
цени	-2716
▁друго	-2717
▁сохра	-2718
▁бло	-2719
▁генераль	-2720
льщи	-2721
▁проходит	-2722
▁электро	-2723
док	-2724
ствии	-2725
▁коло	-2726
▁количество	-2727
никам	-2728
▁2015	-2729
▁кана	-2730
▁бюджета	-2731
жении	-2732
▁призы	-2733
тельного	-2734
раб	-2735
кович	-2736
ственно	-2737
траф	-2738
ресу	-2739
ничто	-2740
ваться	-2741
▁парламент	-2742
▁пояс	-2743
.1	-2744
▁эксперты	-2745
▁комплекс	-2746
вшим	-2747
▁акти	-2748
▁аварий	-2749
am	-2750
▁серьез	-2751
▁минобороны	-2752
▁пример	-2753
▁теннис	-2754
ям	-2755
▁вв	-2756
ческие	-2757
▁мя	-2758
ые	-2759
▁оао	-2760
▁пыта	-2761
пред	-2762
туры	-2763
▁мень	-2764
джи	-2765
▁час	-2766
▁нью	-2767
▁административ	-2768
ятся	-2769
лый	-2770
мости	-2771
дем	-2772
▁провин	-2773
гети	-2774
▁органов	-2775
тиков	-2776
▁гости	-2777
▁объяв	-2778
▁уничто	-2779
▁евг	-2780
▁требу	-2781
▁германии	-2782
▁требова	-2783
▁тера	-2784
нина	-2785
центра	-2786
▁водо	-2787
▁свой	-2788
▁стар	-2789
▁круг	-2790
▁запад	-2791
▁которое	-2792
тых	-2793
▁жители	-2794
-7	-2795
телям	-2796
полн	-2797
бург	-2798
▁гри	-2799
▁заместитель	-2800
обра	-2801
или	-2802
▁визи	-2803
ющим	-2804
▁спасатели	-2805
торов	-2806
щер	-2807
▁това	-2808
▁цены	-2809
▁житель	-2810
спон	-2811
тран	-2812
▁борту	-2813
▁вооружен	-2814
сил	-2815
▁бизнеса	-2816
▁главный	-2817
▁японии	-2818
жный	-2819
▁обстоя	-2820
жей	-2821
▁минуте	-2822
▁изъ	-2823
▁подчер	-2824
▁данных	-2825
гре	-2826
▁гибе	-2827
▁сотрудник	-2828
▁школь	-2829
▁сф	-2830
▁автобус	-2831
▁клуб	-2832
овый	-2833
▁недели	-2834
▁пригово	-2835
шу	-2836
тах	-2837
▁мен	-2838
▁назначен	-2839
ым	-2840
▁устрой	-2841
гах	-2842
▁полицейские	-2843
лке	-2844
el	-2845
▁участников	-2846
▁внеш	-2847
▁кали	-2848
▁непо	-2849
▁финанс	-2850
мин	-2851
▁собствен	-2852
▁ниж	-2853
▁обы	-2854
▁чм	-2855
▁куз	-2856
кци	-2857
кое	-2858
▁пала	-2859
слав	-2860
▁500	-2861
рец	-2862
дово	-2863
▁анти	-2864
▁переговоры	-2865
шению	-2866
нуне	-2867
пара	-2868
▁казах	-2869
▁дополнитель	-2870
лой	-2871
▁гибдд	-2872
ал	-2873
▁сопер	-2874
▁чинов	-2875
▁системы	-2876
емь	-2877
▁комплек	-2878
.4	-2879
▁фору	-2880
▁одно	-2881
▁сп	-2882
▁выпол	-2883
вид	-2884
службе	-2885
констру	-2886
▁жертва	-2887
▁информация	-2888
▁новые	-2889
▁продолжи	-2890
▁турнире	-2891
▁некоторы	-2892
▁ук	-2893
лег	-2894
▁ряд	-2895
обре	-2896
▁лавров	-2897
зор	-2898
▁уточнил	-2899
ску	-2900
▁сообщило	-2901
▁тура	-2902
▁ау	-2903
▁молоде	-2904
▁ис	-2905
▁тай	-2906
▁ленин	-2907
▁напада	-2908
▁завое	-2909
▁действия	-2910
▁наказа	-2911
росла	-2912
клад	-2913
▁имени	-2914
▁донец	-2915
прем	-2916
▁конц	-2917
тельный	-2918
▁предупре	-2919
част	-2920
скет	-2921
▁причиной	-2922
▁средства	-2923
▁италья	-2924
▁главного	-2925
кты	-2926
йца	-2927
▁люди	-2928
▁регионе	-2929
сист	-2930
▁откро	-2931
ера	-2932
▁предло	-2933
кей	-2934
▁пожаров	-2935
▁сравнению	-2936
ав	-2937
▁москву	-2938
▁решения	-2939
ir	-2940
▁международной	-2941
▁травмы	-2942
▁выс	-2943
▁силь	-2944
▁цб	-2945
▁комитет	-2946
▁свидетель	-2947
▁значи	-2948
▁женщина	-2949
▁представители	-2950
▁своего	-2951
кти	-2952
▁номер	-2953
▁следует	-2954
▁населения	-2955
▁64	-2956
▁последние	-2957
▁накануне	-2958
нр	-2959
▁оцен	-2960
▁распро	-2961
ходят	-2962
▁белоруссии	-2963
овая	-2964
▁k	-2965
ian	-2966
▁(4	-2967
▁маха	-2968
oo	-2969
▁обороны	-2970
▁возра	-2971
лина	-2972
ону	-2973
▁руководитель	-2974
сро	-2975
▁правитель	-2976
▁микро	-2977
▁одержа	-2978
▁мэр	-2979
зован	-2980
ционного	-2981
▁изъя	-2982
тного	-2983
нача	-2984
градской	-2985
▁задержали	-2986
▁валю	-2987
▁грузов	-2988
▁мире	-2989
▁поступило	-2990
▁должно	-2991
▁найден	-2992
▁моро	-2993
▁адресу	-2994
▁кризи	-2995
▁здание	-2996
▁сла	-2997
▁оцени	-2998
▁70	-2999
мят	-3000
▁конферен	-3001
-3	-3002
▁сра	-3003
os	-3004
▁район	-3005
▁полити	-3006
▁представ	-3007
пуска	-3008
▁баскет	-3009
▁дороги	-3010
▁мальчи	-3011
вом	-3012
гер	-3013
▁вес	-3014
▁выда	-3015
▁прошед	-3016
регистри	-3017
▁проекта	-3018
пр	-3019
▁посвящен	-3020
▁трени	-3021
▁бен	-3022
▁первой	-3023
▁соответствую	-3024
тс	-3025
▁запла	-3026
▁лишения	-3027
▁восемь	-3028
▁юге	-3029
обнов	-3030
▁встрече	-3031
▁причины	-3032
▁проведет	-3033
▁туристов	-3034
▁столичного	-3035
▁иркут	-3036
▁француз	-3037
▁6:	-3038
стях	-3039
▁вок	-3040
▁изда	-3041
▁образом	-3042
фон	-3043
▁возвра	-3044
▁турнир	-3045
▁собя	-3046
▁объектов	-3047
▁услу	-3048
сследова	-3049
▁пат	-3050
▁провести	-3051
ческая	-3052
▁месяцев	-3053
йор	-3054
▁пенси	-3055
▁фоне	-3056
▁законода	-3057
▁представителя	-3058
лил	-3059
▁вертолет	-3060
▁назад	-3061
▁махачка	-3062
▁анали	-3063
▁ликвиди	-3064
▁автомобилей	-3065
▁биржи	-3066
▁крем	-3067
▁беспо	-3068
▁обрати	-3069
▁возобнов	-3070
▁образования	-3071
▁приобре	-3072
чета	-3073
реза	-3074
▁лишь	-3075
топ	-3076
▁челя	-3077
▁температура	-3078
▁цена	-3079
ляет	-3080
▁находились	-3081
▁работать	-3082
▁волго	-3083
▁иго	-3084
▁2008	-3085
▁дра	-3086
▁капита	-3087
секре	-3088
вую	-3089
ента	-3090
▁рабочи	-3091
надле	-3092
▁серге	-3093
локомо	-3094
▁должна	-3095
▁отмечает	-3096
▁выступи	-3097
▁новой	-3098
▁реконстру	-3099
рез	-3100
каде	-3101
▁италии	-3102
▁наблюда	-3103
рование	-3104
▁баскетбо	-3105
▁зу	-3106
луч	-3107
▁лиц	-3108
лами	-3109
▁тонн	-3110
щать	-3111
▁энерго	-3112
▁министра	-3113
▁сет	-3114
▁неме	-3115
▁самми	-3116
▁иностранных	-3117
▁хоккей	-3118
шта	-3119
▁новгород	-3120
мс	-3121
ква	-3122
▁реда	-3123
▁принадле	-3124
нять	-3125
▁подчерк	-3126
▁наи	-3127
▁екатерин	-3128
▁корреспон	-3129
вого	-3130
рал	-3131
▁зарегистри	-3132
льном	-3133
▁затем	-3134
тья	-3135
▁постро	-3136
▁пило	-3137
▁одном	-3138
▁тол	-3139
матиче	-3140
▁втором	-3141
▁команд	-3142
▁физи	-3143
▁афгани	-3144
▁потерпе	-3145
трит	-3146
кар	-3147
лга	-3148
▁никто	-3149
▁вось	-3150
▁памят	-3151
▁тимо	-3152
лда	-3153
▁еже	-3154
▁километров	-3155
▁сил	-3156
▁информацию	-3157
▁предпри	-3158
▁работают	-3159
мир	-3160
▁выступ	-3161
▁меня	-3162
▁фонда	-3163
▁поле	-3164
▁реша	-3165
▁разру	-3166
им	-3167
льная	-3168
▁меры	-3169
▁энергети	-3170
сматри	-3171
▁составил	-3172
▁теа	-3173
ведения	-3174
бере	-3175
▁оконча	-3176
▁плю	-3177
▁председатель	-3178
▁раза	-3179
▁старт	-3180
▁возник	-3181
▁англи	-3182
▁многи	-3183
▁краснодар	-3184
▁близ	-3185
▁рынок	-3186
▁осуществ	-3187
езде	-3188
▁профе	-3189
чеб	-3190
▁выде	-3191
вич	-3192
служа	-3193
▁прокуратура	-3194
▁заво	-3195
▁увер	-3196
▁шести	-3197
▁прожи	-3198
няет	-3199
работ	-3200
▁министерства	-3201
▁ущер	-3202
лки	-3203
▁статье	-3204
▁столкновения	-3205
ео	-3206
▁баррель	-3207
▁1,5	-3208
чным	-3209
▁оружия	-3210
▁крас	-3211
▁ситуация	-3212
неф	-3213
▁контракт	-3214
▁слож	-3215
▁обстре	-3216
▁мини	-3217
▁национальной	-3218
▁работе	-3219
▁хоккеи	-3220
ехал	-3221
▁полномо	-3222
▁следствия	-3223
новь	-3224
▁арм	-3225
▁учены	-3226
▁отправ	-3227
кер	-3228
шем	-3229
▁фк	-3230
цов	-3231
▁военнослужа	-3232
эс	-3233
▁провинции	-3234
▁возможность	-3235
▁дене	-3236
▁совеща	-3237
▁пото	-3238
▁километрах	-3239
лизе	-3240
▁тему	-3241
▁проблемы	-3242
▁справ	-3243
ченных	-3244
▁имен	-3245
▁веду	-3246
▁россию	-3247
ове	-3248
▁игр	-3249
▁начи	-3250
▁прошлого	-3251
▁скры	-3252
▁расши	-3253
▁аэропорту	-3254
▁владивосток	-3255
▁пря	-3256
▁мэра	-3257
▁случае	-3258
ссы	-3259
чено	-3260
▁особ	-3261
▁вновь	-3262
▁следствие	-3263
дца	-3264
▁дав	-3265
▁осужден	-3266
▁уровне	-3267
▁брон	-3268
▁соглашение	-3269
ing	-3270
бежа	-3271
▁возможно	-3272
дита	-3273
▁бом	-3274
нется	-3275
▁выпла	-3276
▁парт	-3277
▁подпи	-3278
:6	-3279
▁большин	-3280
▁шоссе	-3281
фикси	-3282
▁голосова	-3283
▁воздуш	-3284
▁институ	-3285
▁томске	-3286
▁неболь	-3287
▁ника	-3288
▁пройдут	-3289
нс	-3290
▁проходи	-3291
езда	-3292
▁деятельности	-3293
цам	-3294
▁районах	-3295
▁школы	-3296
▁виктор	-3297
▁сирий	-3298
▁акт	-3299
▁примерно	-3300
▁ска	-3301
▁сутки	-3302
▁полови	-3303
▁очередь	-3304
▁опро	-3305
▁фигу	-3306
▁вороне	-3307
▁био	-3308
▁парламента	-3309
нику	-3310
▁подмосковья	-3311
▁рассмотрит	-3312
вока	-3313
▁нашли	-3314
ципа	-3315
еме	-3316
▁уступи	-3317
▁магниту	-3318
сер	-3319
▁300	-3320
▁способ	-3321
▁турции	-3322
▁зафикси	-3323
▁рекорд	-3324
чает	-3325
чная	-3326
▁деву	-3327
коми	-3328
▁задержаны	-3329
рья	-3330
▁глу	-3331
▁проводится	-3332
▁дерев	-3333
▁кварта	-3334
▁федеральной	-3335
▁современ	-3336
еве	-3337
собо	-3338
▁землетрясение	-3339
▁нам	-3340
et	-3341
▁80	-3342
рить	-3343
сок	-3344
▁ман	-3345
дан	-3346
▁развитие	-3347
шинг	-3348
▁мощ	-3349
▁надо	-3350
▁обстоятельства	-3351
▁мм	-3352
▁мор	-3353
сток	-3354
▁грузови	-3355
▁й	-3356
▁дво	-3357
▁гумвд	-3358
▁часа	-3359
▁обнаружили	-3360
▁примет	-3361
тный	-3362
виси	-3363
▁фин	-3364
ждении	-3365
▁внима	-3366
▁транспорта	-3367
чку	-3368
личи	-3369
ый	-3370
льное	-3371
▁достиг	-3372
▁здании	-3373
▁тепло	-3374
▁отправи	-3375
син	-3376
неш	-3377
етии	-3378
▁исследова	-3379
▁адвока	-3380
ur	-3381
▁обсужда	-3382
сия	-3383
▁тело	-3384
▁бель	-3385
▁принять	-3386
▁кхл	-3387
▁упал	-3388
▁жк	-3389
▁ветер	-3390
▁британ	-3391
льского	-3392
▁серии	-3393
под	-3394
стой	-3395
▁третье	-3396
▁участием	-3397
▁рос	-3398
▁испании	-3399
▁кирги	-3400
рот	-3401
▁неу	-3402
▁набра	-3403
▁работает	-3404
▁внес	-3405
щим	-3406
▁яросла	-3407
▁прогре	-3408
▁губернатор	-3409
▁корреспондент	-3410
-2012	-3411
▁музы	-3412
чай	-3413
▁стрель	-3414
нуть	-3415
▁предусматри	-3416
луа	-3417
▁план	-3418
▁режим	-3419
дентом	-3420
▁посоль	-3421
4,	-3422
▁недо	-3423
▁сообщения	-3424
▁(3	-3425
▁истории	-3426
▁пари	-3427
▁руководителя	-3428
om	-3429
▁тан	-3430
▁сезоне	-3431
▁35	-3432
▁соревнования	-3433
▁убийстве	-3434
▁законопроек	-3435
▁сфере	-3436
▁провел	-3437
▁версии	-3438
▁техники	-3439
▁вза	-3440
вым	-3441
▁двор	-3442
▁переговоров	-3443
▁съ	-3444
▁кара	-3445
▁цере	-3446
▁сезона	-3447
▁таким	-3448
▁награ	-3449
▁считают	-3450
▁стре	-3451
▁начальник	-3452
ффек	-3453
вшийся	-3454
▁произошед	-3455
▁андре	-3456
▁кад	-3457
бр	-3458
▁отношения	-3459
▁нарушения	-3460
зей	-3461
ьев	-3462
▁иран	-3463
нодоро	-3464
▁стру	-3465
▁компаний	-3466
da	-3467
▁футболисты	-3468
ланд	-3469
тива	-3470
▁бро	-3471
▁ядер	-3472
▁завершилась	-3473
▁винов	-3474
вок	-3475
вание	-3476
▁первые	-3477
▁международного	-3478
▁основа	-3479
▁ны	-3480
моск	-3481
чать	-3482
▁призвал	-3483
▁искус	-3484
▁специалисты	-3485
▁норма	-3486
▁секунду	-3487
▁политики	-3488
▁составит	-3489
▁этих	-3490
вшихся	-3491
▁назы	-3492
▁приз	-3493
▁посад	-3494
▁принято	-3495
порта	-3496
▁иванов	-3497
▁ура	-3498
▁полномочи	-3499
▁лен	-3500
▁акаде	-3501
▁здоров	-3502
лер	-3503
▁технологи	-3504
ционной	-3505
▁регуляр	-3506
▁ребенок	-3507
▁боевиков	-3508
▁комиссии	-3509
▁саха	-3510
▁уво	-3511
▁рынке	-3512
▁остались	-3513
▁приморье	-3514
▁лиде	-3515
▁доста	-3516
▁представителей	-3517
▁собянин	-3518
гонь	-3519
▁голов	-3520
веро	-3521
овым	-3522
▁свер	-3523
мут	-3524
▁мер	-3525
▁фили	-3526
▁поддержа	-3527
ходов	-3528
▁неделю	-3529
▁спас	-3530
нитар	-3531
▁банков	-3532
▁неделе	-3533
▁игры	-3534
▁нанес	-3535
жде	-3536
рави	-3537
▁велико	-3538
▁встрети	-3539
▁михаил	-3540
▁совершен	-3541
▁упа	-3542
нюю	-3543
опера	-3544
▁бур	-3545
▁поро	-3546
▁регионов	-3547
▁греции	-3548
ниципа	-3549
▁комму	-3550
▁церемо	-3551
▁ведомство	-3552
▁демон	-3553
▁косми	-3554
▁испан	-3555
лиги	-3556
▁эту	-3557
дор	-3558
▁отече	-3559
лять	-3560
▁преды	-3561
▁военных	-3562
▁размере	-3563
▁космо	-3564
сей	-3565
▁ближайшее	-3566
брь	-3567
▁предыду	-3568
▁огонь	-3569
▁деньги	-3570
▁чемпион	-3571
▁добави	-3572
▁поля	-3573
прези	-3574
▁проигра	-3575
фин	-3576
кали	-3577
▁смогут	-3578
жные	-3579
▁авария	-3580
лона	-3581
▁машины	-3582
вшегося	-3583
ум	-3584
▁собира	-3585
▁степ	-3586
7-	-3587
▁магнитудой	-3588
▁брю	-3589
▁команду	-3590
▁тради	-3591
▁столкнулись	-3592
снаб	-3593
▁уточняется	-3594
▁телекана	-3595
▁университ	-3596
▁южной	-3597
▁вене	-3598
▁двига	-3599
▁десяти	-3600
▁жкх	-3601
ent	-3602
▁отве	-3603
▁j	-3604
▁ини	-3605
▁дума	-3606
▁живо	-3607
зенит	-3608
пром	-3609
▁осве	-3610
этому	-3611
▁аккре	-3612
жды	-3613
▁семи	-3614
▁железнодоро	-3615
▁пове	-3616
▁лат	-3617
▁горя	-3618
эй	-3619
▁жела	-3620
▁гекта	-3621
▁хозяй	-3622
▁неда	-3623
жном	-3624
▁начали	-3625
бок	-3626
▁напа	-3627
▁комплекса	-3628
▁стату	-3629
▁муниципа	-3630
щую	-3631
▁немец	-3632
▁музе	-3633
треть	-3634
центр	-3635
йдет	-3636
▁крым	-3637
▁примен	-3638
▁32	-3639
ed	-3640
▁подчеркнул	-3641
▁швейца	-3642
тей	-3643
россия	-3644
лок	-3645
▁зал	-3646
▁операции	-3647
▁уровень	-3648
▁преступления	-3649
льской	-3650
▁миров	-3651
▁предпринима	-3652
▁ситуацию	-3653
▁опубли	-3654
▁снего	-3655
джа	-3656
▁сня	-3657
▁середи	-3658
секретарь	-3659
дется	-3660
жо	-3661
нила	-3662
шка	-3663
▁николай	-3664
брита	-3665
▁одоб	-3666
вала	-3667
▁хра	-3668
▁томск	-3669
▁v	-3670
▁следственного	-3671
▁пожаре	-3672
-2010	-3673
кую	-3674
▁штраф	-3675
▁связан	-3676
▁цель	-3677
▁приостанов	-3678
▁структу	-3679
▁январе	-3680
▁кораб	-3681
гры	-3682
▁состояние	-3683
ец	-3684
▁тимошенко	-3685
▁автобуса	-3686
▁представля	-3687
▁следователи	-3688
▁сыграет	-3689
хии	-3690
▁русс	-3691
▁поезд	-3692
▁ставропо	-3693
▁всем	-3694
йтед	-3695
▁общей	-3696
▁чемпионат	-3697
смотря	-3698
ленные	-3699
▁рассчиты	-3700
▁провед	-3701
перь	-3702
▁владимира	-3703
▁реализации	-3704
тные	-3705
десь	-3706
плуа	-3707
▁мекси	-3708
треб	-3709
▁приняли	-3710
ющем	-3711
ion	-3712
▁качестве	-3713
ew	-3714
5-6	-3715
бора	-3716
спор	-3717
▁действую	-3718
▁тела	-3719
▁смерти	-3720
▁похо	-3721
▁нынеш	-3722
▁техниче	-3723
▁дипло	-3724
▁гибели	-3725
овал	-3726
следова	-3727
▁колле	-3728
льным	-3729
▁отды	-3730
▁пово	-3731
ционных	-3732
▁яну	-3733
ьера	-3734
рок	-3735
▁фун	-3736
▁радио	-3737
▁проблем	-3738
мых	-3739
ленный	-3740
спартак	-3741
льти	-3742
▁членов	-3743
▁заплани	-3744
▁помощью	-3745
▁австра	-3746
▁даже	-3747
▁землетрясения	-3748
▁поэтому	-3749
un	-3750
енно	-3751
▁васи	-3752
▁местные	-3753
▁z	-3754
▁украина	-3755
▁молоды	-3756
▁подписал	-3757
▁домаш	-3758
▁больницы	-3759
тят	-3760
▁остров	-3761
▁указа	-3762
▁сда	-3763
▁несмотря	-3764
▁торгово	-3765
▁дни	-3766
▁буль	-3767
▁второго	-3768
▁рассматри	-3769
лян	-3770
▁ассоциа	-3771
▁поддержи	-3772
▁прогнози	-3773
▁строитель	-3774
▁линии	-3775
▁путина	-3776
станции	-3777
▁находился	-3778
▁оборуд	-3779
▁перспек	-3780
ффектив	-3781
▁труд	-3782
▁воздуха	-3783
чего	-3784
сить	-3785
▁напад	-3786
▁645-6	-3787
▁студент	-3788
▁проверка	-3789
▁предлагает	-3790
▁шан	-3791
zy	-3792
▁гумчс	-3793
шает	-3794
▁поддержку	-3795
▁очеред	-3796
ственных	-3797
▁памя	-3798
▁матчей	-3799
▁попу	-3800
выше	-3801
▁несколь	-3802
▁предъ	-3803
▁проведен	-3804
шкин	-3805
▁транс	-3806
▁архи	-3807
▁тогда	-3808
главы	-3809
▁вашинг	-3810
▁беспоряд	-3811
▁теннисист	-3812
▁оппозиции	-3813
▁ученые	-3814
движи	-3815
▁заседание	-3816
▁измени	-3817
▁войны	-3818
▁теперь	-3819
▁(0	-3820
▁учеб	-3821
▁порта	-3822
▁эколо	-3823
▁большой	-3824
кор	-3825
ван	-3826
ете	-3827
▁девять	-3828
сен	-3829
▁подня	-3830
▁статьи	-3831
▁данный	-3832
оны	-3833
▁этим	-3834
ровки	-3835
▁борьбе	-3836
▁больнице	-3837
▁принял	-3838
▁пользова	-3839
руг	-3840
▁евгений	-3841
▁поступа	-3842
5,	-3843
сторон	-3844
▁авиакомпании	-3845
▁финанси	-3846
▁проверки	-3847
▁жало	-3848
▁страте	-3849
▁александра	-3850
запад	-3851
мор	-3852
▁сообщают	-3853
чное	-3854
▁аэс	-3855
▁болельщи	-3856
▁вопросам	-3857
▁неизвестные	-3858
их	-3859
▁остави	-3860
жем	-3861
▁рядом	-3862
▁публи	-3863
▁уголовного	-3864
▁прохо	-3865
▁введен	-3866
▁создать	-3867
▁игорь	-3868
структу	-3869
▁госдумы	-3870
▁эксплуа	-3871
▁иван	-3872
▁пор	-3873
сле	-3874
▁ней	-3875
▁судеб	-3876
чную	-3877
▁великобрита	-3878
▁лы	-3879
▁пси	-3880
▁ирана	-3881
-8	-3882
▁свыше	-3883
▁in	-3884
▁четверть	-3885
ила	-3886
▁подзем	-3887
ционный	-3888
▁сно	-3889
▁проверку	-3890
премьер	-3891
▁прошлом	-3892
▁перево	-3893
вшую	-3894
след	-3895
▁един	-3896
вб	-3897
стки	-3898
мат	-3899
▁здесь	-3900
▁33	-3901
▁минус	-3902
▁российская	-3903
нему	-3904
дно	-3905
▁севере	-3906
▁силу	-3907
нау	-3908
▁учи	-3909
▁ум	-3910
▁кни	-3911
▁умер	-3912
▁напом	-3913
▁прошел	-3914
сили	-3915
▁максима	-3916
▁аэропорт	-3917
▁аккредита	-3918
▁отклю	-3919
зил	-3920
▁креди	-3921
▁поста	-3922
▁ван	-3923
▁природ	-3924
▁иде	-3925
▁намерен	-3926
▁телефо	-3927
▁выполн	-3928
▁сторон	-3929
▁секунды	-3930
▁обама	-3931
▁заболе	-3932
фы	-3933
▁милиции	-3934
▁секре	-3935
еты	-3936
▁агентству	-3937
▁эпи	-3938
гом	-3939
▁сделать	-3940
стоян	-3941
..	-3942
зит	-3943
▁теат	-3944
▁34	-3945
▁резер	-3946
▁90	-3947
мена	-3948
▁гд	-3949
▁депутат	-3950
гули	-3951
ig	-3952
▁лед	-3953
▁бел	-3954
москва	-3955
▁фестиваль	-3956
▁властей	-3957
ноп	-3958
ования	-3959
▁ам	-3960
бом	-3961
▁губернатора	-3962
▁сара	-3963
▁банк	-3964
▁роста	-3965
▁постанов	-3966
шую	-3967
зм	-3968
▁ближайшие	-3969
▁ано	-3970
▁процесс	-3971
▁ликвида	-3972
▁вреза	-3973
▁одним	-3974
▁четверо	-3975
▁отдела	-3976
тые	-3977
чью	-3978
▁мигра	-3979
▁северной	-3980
▁36	-3981
мень	-3982
▁дер	-3983
▁расследование	-3984
▁которую	-3985
▁обеща	-3986
▁россияне	-3987
▁имуще	-3988
▁жили	-3989
▁нефте	-3990
▁самых	-3991
▁произво	-3992
цами	-3993
▁сим	-3994
бербан	-3995
▁государственной	-3996
▁консу	-3997
▁рейс	-3998
▁недвижи	-3999
дах	-4000
▁израиль	-4001
▁вести	-4002
▁юрий	-4003
▁инициа	-4004
рус	-4005
▁магази	-4006
▁мнению	-4007
лоу	-4008
▁дальней	-4009
▁планируют	-4010
▁дожд	-4011
беж	-4012
авто	-4013
рыва	-4014
служи	-4015
▁хочет	-4016
дону	-4017
чению	-4018
▁to	-4019
▁соревнований	-4020
▁навод	-4021
▁предложил	-4022
▁результаты	-4023
▁театра	-4024
▁групп	-4025
▁копей	-4026
▁месяца	-4027
▁грузии	-4028
▁обязан	-4029
▁кредит	-4030
▁алкого	-4031
▁яку	-4032
▁улуч	-4033
▁пригла	-4034
▁мос	-4035
более	-4036
▁уг	-4037
▁московском	-4038
дителей	-4039
разви	-4040
▁разби	-4041
▁франс	-4042
▁аппара	-4043
▁распоря	-4044
ходы	-4045
рг	-4046
▁зим	-4047
▁кер	-4048
▁построи	-4049
жением	-4050
▁конференции	-4051
ктически	-4052
▁сде	-4053
хе	-4054
ждений	-4055
▁прокуро	-4056
▁бай	-4057
стами	-4058
▁раун	-4059
▁финала	-4060
▁верх	-4061
▁елена	-4062
▁принес	-4063
▁совершил	-4064
кторов	-4065
▁получить	-4066
фу	-4067
эк	-4068
▁калинин	-4069
▁верхов	-4070
чис	-4071
▁известно	-4072
спи	-4073
▁председателя	-4074
▁поражение	-4075
▁фотографи	-4076
▁язы	-4077
голо	-4078
▁союза	-4079
стка	-4080
▁заявление	-4081
няются	-4082
▁вышел	-4083
-4	-4084
▁траге	-4085
▁предприятия	-4086
▁местному	-4087
вин	-4088
▁назвал	-4089
▁очевид	-4090
▁професси	-4091
лях	-4092
вью	-4093
▁море	-4094
▁номе	-4095
▁ливии	-4096
▁справка	-4097
10	-4098
▁ежегод	-4099
▁свидетельствуют	-4100
кли	-4101
▁аналоги	-4102
ut	-4103
▁розы	-4104
▁вен	-4105
▁десять	-4106
рована	-4107
▁выше	-4108
▁содержа	-4109
▁имеет	-4110
▁жертвами	-4111
▁паки	-4112
рованных	-4113
▁перене	-4114
баты	-4115
▁уз	-4116
мед	-4117
▁поселке	-4118
▁полет	-4119
▁международный	-4120
▁заявила	-4121
▁законопроект	-4122
▁силови	-4123
ровер	-4124
▁самар	-4125
щенко	-4126
▁кате	-4127
▁городской	-4128
▁китая	-4129
▁программу	-4130
▁чемпионов	-4131
▁внутренних	-4132
▁партия	-4133
▁футбольного	-4134
▁собо	-4135
дино	-4136
▁чрез	-4137
▁прин	-4138
▁промышлен	-4139
нике	-4140
▁топли	-4141
▁жизнь	-4142
▁улица	-4143
гар	-4144
жает	-4145
▁президентом	-4146
▁дети	-4147
▁сразу	-4148
▁сло	-4149
▁конкурс	-4150
▁край	-4151
▁арген	-4152
▁рынка	-4153
▁пожарные	-4154
▁марте	-4155
▁полицию	-4156
рыв	-4157
креп	-4158
▁фло	-4159
востоке	-4160
▁килограм	-4161
▁медицин	-4162
▁мур	-4163
▁поту	-4164
▁роман	-4165
▁женщины	-4166
▁региону	-4167
▁шу	-4168
▁сентябре	-4169
▁утра	-4170
▁первую	-4171
▁директора	-4172
▁направи	-4173
▁сбербан	-4174
▁получила	-4175
▁сотрудничества	-4176
мос	-4177
▁сме	-4178
▁судь	-4179
▁подоб	-4180
щены	-4181
▁худо	-4182
охран	-4183
▁инцидента	-4184
▁гидро	-4185
▁метео	-4186
▁кажды	-4187
ждает	-4188
▁добы	-4189
чем	-4190
▁форми	-4191
▁годов	-4192
▁порт	-4193
тка	-4194
▁газо	-4195
▁объедин	-4196
мость	-4197
ow	-4198
ждены	-4199
▁примут	-4200
телями	-4201
▁полузащи	-4202
▁плюс	-4203
лод	-4204
▁будем	-4205
▁органы	-4206
пси	-4207
▁самым	-4208
▁лондоне	-4209
ad	-4210
шением	-4211
im	-4212
wit	-4213
▁квали	-4214
he	-4215
кса	-4216
▁третий	-4217
▁сергея	-4218
▁список	-4219
▁ата	-4220
▁готовы	-4221
▁колонии	-4222
▁захва	-4223
▁сена	-4224
▁полицейских	-4225
▁поручил	-4226
дам	-4227
▁2006	-4228
▁республике	-4229
жур	-4230
городе	-4231
сб	-4232
▁никола	-4233
▁интервью	-4234
▁начал	-4235
риче	-4236
witter	-4237
▁мас	-4238
▁условия	-4239
▁делега	-4240
▁остан	-4241
▁пересе	-4242
▁рассмотр	-4243
▁томской	-4244
▁пале	-4245
эль	-4246
вычай	-4247
парк	-4248
▁каса	-4249
▁рейтер	-4250
вили	-4251
▁мария	-4252
▁гран	-4253
кован	-4254
▁198	-4255
менте	-4256
▁доб	-4257
лые	-4258
весто	-4259
▁должность	-4260
спла	-4261
▁киргизии	-4262
▁ущерб	-4263
▁оль	-4264
▁сети	-4265
▁располага	-4266
лейбо	-4267
▁норве	-4268
▁минуты	-4269
▁себе	-4270
летняя	-4271
▁олег	-4272
тника	-4273
▁семей	-4274
ленного	-4275
кций	-4276
шет	-4277
▁просит	-4278
▁эксперт	-4279
▁мульти	-4280
▁владивостоке	-4281
▁марки	-4282
▁первым	-4283
труд	-4284
▁связа	-4285
▁эксплуата	-4286
▁мон	-4287
овое	-4288
▁группи	-4289
▁пенсион	-4290
▁пеше	-4291
▁коре	-4292
...	-4293
▁постоян	-4294
кав	-4295
▁150	-4296
проку	-4297
▁улицы	-4298
▁россией	-4299
мые	-4300
▁локали	-4301
▁поезда	-4302
▁чрезвычай	-4303
▁машин	-4304
вшись	-4305
▁первое	-4306
▁рекомен	-4307
▁соглашения	-4308
зорва	-4309
▁второе	-4310
▁местных	-4311
лам	-4312
▁мета	-4313
▁предостав	-4314
▁благода	-4315
▁нижегород	-4316
тина	-4317
чев	-4318
▁алек	-4319
▁республикан	-4320
май	-4321
▁синоп	-4322
▁закончи	-4323
▁нефтя	-4324
▁именно	-4325
.2	-4326
сят	-4327
▁иномар	-4328
тивы	-4329
▁вар	-4330
.0	-4331
▁опол	-4332
цем	-4333
▁вале	-4334
▁прошли	-4335
▁нескольких	-4336
▁телефону	-4337
▁экипажа	-4338
▁которым	-4339
▁сезон	-4340
▁мог	-4341
▁провели	-4342
▁аккредитация	-4343
▁написа	-4344
▁военные	-4345
вард	-4346
питан	-4347
▁доби	-4348
▁ярослав	-4349
▁обруши	-4350
▁тот	-4351
▁обу	-4352
▁сумму	-4353
мэ	-4354
▁местного	-4355
3,	-4356
ностей	-4357
▁взаимо	-4358
жеб	-4359
▁тамо	-4360
надца	-4361
▁прибыли	-4362
ложительно	-4363
тб	-4364
▁вну	-4365
▁зво	-4366
▁попро	-4367
менти	-4368
нули	-4369
▁груз	-4370
▁мужчины	-4371
▁пояснил	-4372
▁изменения	-4373
▁южно	-4374
▁армии	-4375
▁интере	-4376
▁инвесто	-4377
▁биографи	-4378
ляют	-4379
▁должности	-4380
▁волейбо	-4381
▁бори	-4382
▁этапе	-4383
▁населенных	-4384
сколь	-4385
▁городского	-4386
▁мероприятий	-4387
▁twitter	-4388
запа	-4389
▁веро	-4390
▁мошен	-4391
▁здра	-4392
▁подъ	-4393
▁приво	-4394
▁погода	-4395
ходе	-4396
▁госс	-4397
дила	-4398
▁путе	-4399
▁38	-4400
▁жилищ	-4401
▁нало	-4402
▁татья	-4403
▁голосов	-4404
▁зар	-4405
▁осад	-4406
▁долго	-4407
▁яв	-4408
леко	-4409
▁годах	-4410
хани	-4411
▁торг	-4412
▁приговор	-4413
▁доставлены	-4414
▁мало	-4415
▁ним	-4416
▁отставку	-4417
▁успеш	-4418
▁этому	-4419
емые	-4420
культу	-4421
▁дли	-4422
▁собой	-4423
▁палести	-4424
▁пунктов	-4425
зины	-4426
▁развитию	-4427
▁фер	-4428
▁взят	-4429
▁селе	-4430
регули	-4431
▁водителя	-4432
стями	-4433
▁бывший	-4434
раструкту	-4435
ляли	-4436
шев	-4437
медий	-4438
▁клю	-4439
▁400	-4440
▁дож	-4441
▁строй	-4442
▁событий	-4443
ентов	-4444
зь	-4445
▁потеря	-4446
петербурге	-4447
▁катастро	-4448
▁начнется	-4449
▁определи	-4450
мами	-4451
▁гума	-4452
▁участия	-4453
мана	-4454
реа	-4455
шены	-4456
разде	-4457
▁итоги	-4458
финал	-4459
▁опровер	-4460
-2011	-4461
циях	-4462
▁коллек	-4463
▁ветра	-4464
ail	-4465
▁кнр	-4466
▁собеседница	-4467
ровала	-4468
▁защитник	-4469
▁снег	-4470
▁режиме	-4471
▁индии	-4472
▁копейки	-4473
▁рус	-4474
▁возможности	-4475
довлет	-4476
▁трассе	-4477
▁уд	-4478
дире	-4479
▁2,5	-4480
▁претен	-4481
▁кров	-4482
▁золото	-4483
▁умвд	-4484
▁дени	-4485
▁1/	-4486
▁лука	-4487
▁уверен	-4488
▁середине	-4489
▁уровня	-4490
▁инспек	-4491
рения	-4492
▁отношений	-4493
▁зарпла	-4494
ковой	-4495
▁шай	-4496
▁заседания	-4497
▁целе	-4498
▁здраво	-4499
еру	-4500
▁требует	-4501
▁своим	-4502
▁восьми	-4503
▁ночью	-4504
▁международных	-4505
▁мировой	-4506
тая	-4507
▁военного	-4508
тере	-4509
▁вру	-4510
▁особо	-4511
▁активи	-4512
▁замглавы	-4513
▁обнаружено	-4514
▁инфраструкту	-4515
▁автома	-4516
▁предмет	-4517
▁наиболее	-4518
▁регионах	-4519
▁декабре	-4520
▁мужчин	-4521
▁официальном	-4522
нования	-4523
▁кремля	-4524
▁оши	-4525
▁уро	-4526
зацию	-4527
▁подтвердил	-4528
▁загоре	-4529
дерни	-4530
бий	-4531
▁закона	-4532
порт	-4533
▁отсут	-4534
бран	-4535
▁подразде	-4536
пс	-4537
фикации	-4538
▁телефон	-4539
▁полуфина	-4540
▁проспекте	-4541
ровании	-4542
▁исполн	-4543
ак	-4544
▁санкции	-4545
▁возгорания	-4546
▁твер	-4547
ственный	-4548
▁большинство	-4549
ссель	-4550
▁здравоохран	-4551
▁st	-4552
▁инфля	-4553
▁начина	-4554
локомотив	-4555
▁финале	-4556
летел	-4557
▁катего	-4558
▁служеб	-4559
мах	-4560
▁выну	-4561
▁ммвб	-4562
▁позже	-4563
все	-4564
▁зе	-4565
▁перм	-4566
▁москви	-4567
▁признал	-4568
▁ленинградской	-4569
▁взрыве	-4570
▁стратеги	-4571
береж	-4572
▁группе	-4573
▁документа	-4574
союз	-4575
▁вышли	-4576
щу	-4577
▁отмени	-4578
шиэ	-4579
▁огня	-4580
▁завершился	-4581
▁российском	-4582
шиэйтед	-4583
▁соболез	-4584
▁возле	-4585
▁являются	-4586
▁эвакуированы	-4587
▁ассошиэйтед	-4588
▁вылет	-4589
▁45	-4590
▁депутаты	-4591
▁поиск	-4592
▁жилых	-4593
▁скла	-4594
▁петро	-4595
▁надеется	-4596
лана	-4597
▁писто	-4598
ится	-4599
▁каб	-4600
▁крыма	-4601
▁данному	-4602
▁модерни	-4603
▁ассоциации	-4604
дова	-4605
▁финал	-4606
▁культур	-4607
▁эффектив	-4608
▁брига	-4609
▁света	-4610
▁моря	-4611
▁независи	-4612
скольку	-4613
▁принадлежа	-4614
тое	-4615
▁остается	-4616
▁(5	-4617
▁("	-4618
▁доступ	-4619
▁конта	-4620
▁сократи	-4621
▁гуманитар	-4622
бани	-4623
▁организова	-4624
▁остаются	-4625
днев	-4626
▁всей	-4627
▁челябин	-4628
сах	-4629
▁подготовки	-4630
▁39	-4631
втра	-4632
▁киеве	-4633
▁телеканал	-4634
бии	-4635
▁порту	-4636
▁наркотиков	-4637
оз	-4638
▁кафе	-4639
▁мультимедий	-4640
▁партнер	-4641
▁инди	-4642
▁теннисного	-4643
пру	-4644
дума	-4645
форм	-4646
▁дежур	-4647
▁эвакуа	-4648
▁угрозы	-4649
▁выиграл	-4650
▁египта	-4651
дри	-4652
▁эфи	-4653
▁отдыха	-4654
▁достави	-4655
зора	-4656
▁ищ	-4657
▁военнослужащих	-4658
▁выпуск	-4659
▁наро	-4660
▁московский	-4661
▁квартиры	-4662
▁журналистов	-4663
ственные	-4664
гой	-4665
▁таких	-4666
▁продли	-4667
▁подряд	-4668
▁рез	-4669
кте	-4670
▁наказание	-4671
▁такой	-4672
▁отдель	-4673
▁ред	-4674
▁снг	-4675
▁дон	-4676
ственного	-4677
▁могли	-4678
▁среды	-4679
ющая	-4680
▁врачи	-4681
дим	-4682
▁участков	-4683
▁результат	-4684
▁родствен	-4685
▁текущего	-4686
вно	-4687
▁электрон	-4688
▁табли	-4689
▁ваго	-4690
▁россиянин	-4691
анов	-4692
▁итальян	-4693
кина	-4694
▁опы	-4695
▁предусматривает	-4696
▁карь	-4697
▁режима	-4698
▁вя	-4699
▁договори	-4700
▁снизился	-4701
телю	-4702
точно	-4703
ta	-4704
▁злоу	-4705
▁поселка	-4706
▁земель	-4707
▁управля	-4708
гуш	-4709
▁организаций	-4710
енных	-4711
.3	-4712
емся	-4713
▁система	-4714
▁биат	-4715
▁гектаров	-4716
▁допусти	-4717
▁районов	-4718
▁россиянка	-4719
▁высоко	-4720
▁охраны	-4721
▁километре	-4722
боро	-4723
▁жилье	-4724
▁олимпиады	-4725
▁внимание	-4726
▁побереж	-4727
лла	-4728
▁ото	-4729
жная	-4730
▁автодоро	-4731
▁сель	-4732
▁следующем	-4733
▁пав	-4734
▁откроется	-4735
тков	-4736
▁уви	-4737
▁силы	-4738
▁этапа	-4739
ср	-4740
стью	-4741
▁потреби	-4742
▁выходные	-4743
and	-4744
▁км	-4745
лково	-4746
▁проведение	-4747
▁конфликта	-4748
▁великобритании	-4749
▁гостей	-4750
▁поскольку	-4751
▁профессиональ	-4752
эн	-4753
▁занимает	-4754
▁всемир	-4755
▁перекры	-4756
▁какие	-4757
▁мае	-4758
мия	-4759
ницей	-4760
▁войск	-4761
ляется	-4762
▁поми	-4763
▁вступи	-4764
▁сторону	-4765
▁изу	-4766
▁гео	-4767
верну	-4768
суэ	-4769
▁министерство	-4770
сена	-4771
▁прошла	-4772
▁гар	-4773
ранов	-4774
▁леноб	-4775
▁тепла	-4776
▁семья	-4777
▁выдели	-4778
▁выступая	-4779
▁благодаря	-4780
▁легков	-4781
▁отличи	-4782
▁наси	-4783
▁депутатов	-4784
":	-4785
▁рубль	-4786
тисти	-4787
▁штор	-4788
▁казани	-4789
▁прибыл	-4790
▁72	-4791
▁анато	-4792
▁села	-4793
сона	-4794
▁победитель	-4795
ябрь	-4796
▁влия	-4797
6-	-4798
зация	-4799
▁выяв	-4800
▁олимпийских	-4801
▁острова	-4802
▁туристи	-4803
туру	-4804
▁прото	-4805
▁сбо	-4806
▁просто	-4807
эро	-4808
▁действий	-4809
▁руководство	-4810
гий	-4811
▁предъяв	-4812
▁татар	-4813
▁предостави	-4814
▁семьи	-4815
▁каждый	-4816
шой	-4817
▁учет	-4818
▁площадью	-4819
▁дагестане	-4820
▁первая	-4821
▁цер	-4822
▁главой	-4823
доне	-4824
▁сц	-4825
▁герои	-4826
▁судна	-4827
▁бульвар	-4828
▁форвард	-4829
▁ликвидации	-4830
de	-4831
лад	-4832
гин	-4833
▁одну	-4834
▁грозит	-4835
чили	-4836
▁проверя	-4837
▁сильный	-4838
▁взорва	-4839
▁испыта	-4840
▁слов	-4841
▁37	-4842
чность	-4843
▁некоторые	-4844
▁кг	-4845
▁изби	-4846
▁удовлет	-4847
▁последним	-4848
рай	-4849
граде	-4850
▁апреле	-4851
▁программе	-4852
▁рейсов	-4853
лайн	-4854
▁юри	-4855
▁конститу	-4856
ace	-4857
▁bo	-4858
▁распростран	-4859
ича	-4860
▁компен	-4861
экономи	-4862
▁первен	-4863
▁проголо	-4864
▁прогреме	-4865
▁миниму	-4866
шить	-4867
▁команде	-4868
лл	-4869
▁пан	-4870
▁служба	-4871
▁выставка	-4872
▁оде	-4873
тым	-4874
▁лиди	-4875
▁предложения	-4876
зия	-4877
сво	-4878
ландии	-4879
▁оз	-4880
▁яр	-4881
▁дове	-4882
▁знамени	-4883
▁получа	-4884
▁пострадавшие	-4885
▁air	-4886
oc	-4887
▁эсто	-4888
▁военной	-4889
▁мужчину	-4890
▁обстанов	-4891
▁рассчита	-4892
▁экологи	-4893
▁польши	-4894
▁рекла	-4895
▁меньше	-4896
-200	-4897
груз	-4898
энерго	-4899
рят	-4900
▁целом	-4901
▁попыт	-4902
▁многие	-4903
▁справи	-4904
▁программа	-4905
▁прием	-4906
▁местами	-4907
кциони	-4908
▁возгорание	-4909
одо	-4910
▁ингуш	-4911
ката	-4912
зенита	-4913
против	-4914
▁региональное	-4915
бурге	-4916
▁дагестана	-4917
льский	-4918
▁постави	-4919
▁беспла	-4920
▁оо	-4921
▁получат	-4922
петербурга	-4923
▁42	-4924
▁оказались	-4925
▁казахстана	-4926
зербай	-4927
▁падения	-4928
▁алексе	-4929
▁вокза	-4930
ческое	-4931
▁потребова	-4932
ht	-4933
жит	-4934
сон	-4935
рее	-4936
▁земли	-4937
▁последний	-4938
▁документы	-4939
▁египет	-4940
▁генпроку	-4941
▁рапси	-4942
▁общественного	-4943
▁куро	-4944
ис	-4945
гами	-4946
▁защиты	-4947
▁тренера	-4948
▁янукович	-4949
▁которому	-4950
▁раск	-4951
▁главка	-4952
▁возглавля	-4953
▁погра	-4954
▁примор	-4955
▁освещать	-4956
▁юби	-4957
▁зоне	-4958
▁торги	-4959
▁бразилии	-4960
▁члена	-4961
▁поправ	-4962
▁жиль	-4963
▁объяс	-4964
льт	-4965
▁опо	-4966
▁присо	-4967
ехали	-4968
▁кузнец	-4969
▁новосибирске	-4970
▁субъ	-4971
▁исла	-4972
▁цити	-4973
▁сможет	-4974
▁люд	-4975
▁томска	-4976
пря	-4977
▁проводит	-4978
▁зару	-4979
ссию	-4980
▁воло	-4981
▁стоит	-4982
▁фир	-4983
▁мере	-4984
▁пони	-4985
▁судно	-4986
▁здравоохранения	-4987
▁зри	-4988
▁татьяна	-4989
▁ооо	-4990
▁новым	-4991
▁воронеж	-4992
▁зубов	-4993
▁адвокат	-4994
▁начальника	-4995
▁1,2	-4996
ческим	-4997
▁наши	-4998
▁посла	-4999
▁набере	-5000
rian	-5001
▁газета	-5002
re	-5003
▁чс	-5004
емой	-5005
западе	-5006
▁практически	-5007
▁авст	-5008
ленной	-5009
▁иннова	-5010
▁потому	-5011
куп	-5012
▁контроль	-5013
руется	-5014
▁женщин	-5015
президент	-5016
▁заключения	-5017
ями	-5018
невосто	-5019
▁сборную	-5020
вшиеся	-5021
чика	-5022
воритель	-5023
шать	-5024
▁присут	-5025
▁арестов	-5026
▁напомнил	-5027
.5	-5028
▁октябре	-5029
▁ленобласти	-5030
▁национального	-5031
▁латвии	-5032
▁популяр	-5033
-2014	-5034
▁столкнулся	-5035
▁супру	-5036
▁регистра	-5037
▁джа	-5038
▁боро	-5039
новский	-5040
▁появится	-5041
▁вво	-5042
▁ноябре	-5043
▁врезался	-5044
▁сегодняш	-5045
▁облада	-5046
▁констан	-5047
▁кем	-5048
▁обнаружены	-5049
▁бой	-5050
▁создан	-5051
▁ремонт	-5052
▁управлением	-5053
кома	-5054
▁союз	-5055
▁учреждения	-5056
жений	-5057
▁выстре	-5058
▁важ	-5059
▁соответствии	-5060
чин	-5061
▁коне	-5062
2,	-5063
▁таможен	-5064
▁афган	-5065
▁произошедшего	-5066
▁мосгор	-5067
▁отда	-5068
▁статисти	-5069
▁комиссия	-5070
▁коль	-5071
▁готова	-5072
▁следующий	-5073
▁жу	-5074
▁матчах	-5075
ндр	-5076
▁(7	-5077
▁оча	-5078
▁кризиса	-5079
▁турец	-5080
▁перевоз	-5081
▁неизвестный	-5082
▁концер	-5083
▁сосед	-5084
зий	-5085
▁астра	-5086
▁орен	-5087
▁подозреваемый	-5088
▁другой	-5089
ственная	-5090
▁призовой	-5091
нией	-5092
▁оказался	-5093
▁арестован	-5094
моде	-5095
▁лесных	-5096
нтов	-5097
летней	-5098
▁причаст	-5099
▁участке	-5100
▁плей	-5101
▁охо	-5102
▁кндр	-5103
▁вероят	-5104
▁оперативно	-5105
▁центральной	-5106
▁коммента	-5107
▁забил	-5108
гия	-5109
▁краю	-5110
▁лит	-5111
▁речь	-5112
▁генеральный	-5113
▁ответственности	-5114
▁вете	-5115
▁реаль	-5116
▁корпо	-5117
▁пооб	-5118
▁степени	-5119
▁киров	-5120
▁кв	-5121
▁фью	-5122
▁вашингтон	-5123
тельное	-5124
▁объявил	-5125
▁сотрудника	-5126
▁документов	-5127
-15	-5128
шко	-5129
риан	-5130
жать	-5131
лле	-5132
▁коле	-5133
▁устрои	-5134
▁проголосова	-5135
▁психо	-5136
бина	-5137
▁осмо	-5138
▁мошенниче	-5139
▁зоо	-5140
рация	-5141
▁нальчи	-5142
▁выбра	-5143
▁новом	-5144
▁ввп	-5145
▁приступи	-5146
▁зато	-5147
▁ресур	-5148
▁обсудит	-5149
▁продолжается	-5150
st	-5151
▁гроз	-5152
▁физической	-5153
▁63	-5154
-1"	-5155
▁такие	-5156
)",	-5157
▁прогноз	-5158
▁широ	-5159
▁июне	-5160
▁всероссий	-5161
▁гидромет	-5162
▁сложности	-5163
смотрен	-5164
щему	-5165
▁корруп	-5166
тельным	-5167
▁азербай	-5168
▁голосования	-5169
▁хозяев	-5170
▁констру	-5171
▁пожарных	-5172
▁обсе	-5173
▁опла	-5174
еть	-5175
чена	-5176
▁втб	-5177
▁тяжелом	-5178
бл	-5179
▁лебе	-5180
▁проходят	-5181
▁условиях	-5182
▁футболист	-5183
▁2007	-5184
▁саратов	-5185
▁чеч	-5186
мокра	-5187
▁фьючер	-5188
▁приве	-5189
нав	-5190
▁дмит	-5191
▁борьбы	-5192
▁обеспечения	-5193
офф	-5194
▁товари	-5195
ново	-5196
▁огне	-5197
▁цвет	-5198
▁ер	-5199
рению	-5200
▁подтоп	-5201
▁создание	-5202
рат	-5203
льную	-5204
▁самые	-5205
▁намерены	-5206
цева	-5207
▁выросла	-5208
▁урегули	-5209
▁акция	-5210
▁случай	-5211
▁заместителя	-5212
-9	-5213
▁квартир	-5214
равил	-5215
швили	-5216
▁рейтинг	-5217
▁нашей	-5218
▁билет	-5219
риар	-5220
▁европе	-5221
▁феврале	-5222
▁витали	-5223
▁соба	-5224
▁проектов	-5225
▁вод	-5226
▁камчат	-5227
▁порошенко	-5228
▁минзд	-5229
▁милицион	-5230
▁истори	-5231
джер	-5232
▁оказы	-5233
▁квартире	-5234
▁въ	-5235
▁пожи	-5236
▁открытии	-5237
▁поздравил	-5238
▁люби	-5239
▁производства	-5240
▁подозреваемого	-5241
▁мне	-5242
▁базе	-5243
▁корпу	-5244
▁ничего	-5245
em	-5246
-5	-5247
чел	-5248
действия	-5249
шено	-5250
▁тюрь	-5251
▁очка	-5252
▁целью	-5253
рованию	-5254
▁государств	-5255
фло	-5256
▁ольга	-5257
ам	-5258
▁грана	-5259
сторо	-5260
тельная	-5261
▁восстановлено	-5262
никова	-5263
вян	-5264
байка	-5265
▁смог	-5266
▁биатло	-5267
▁досро	-5268
▁полицейский	-5269
▁тари	-5270
▁патриар	-5271
ac	-5272
up	-5273
ед	-5274
▁нападающий	-5275
гент	-5276
ствовали	-5277
таря	-5278
газпром	-5279
▁сроки	-5280
▁бывшего	-5281
ртов	-5282
▁онлайн	-5283
▁состоянию	-5284
▁заявили	-5285
кцию	-5286
▁теракта	-5287
▁использу	-5288
▁фильм	-5289
▁жителя	-5290
▁ов	-5291
▁смогли	-5292
▁зубовский	-5293
релизе	-5294
поте	-5295
▁думаю	-5296
▁ожидаются	-5297
▁согласова	-5298
▁мастер	-5299
▁расчет	-5300
▁хорошо	-5301
груп	-5302
стоит	-5303
▁ввс	-5304
вшаяся	-5305
▁ирина	-5306
чением	-5307
▁летом	-5308
▁всп	-5309
▁девяти	-5310
ровой	-5311
▁девочка	-5312
▁победой	-5313
▁забро	-5314
модедово	-5315
▁убийство	-5316
▁областного	-5317
▁построить	-5318
чиков	-5319
▁медали	-5320
ation	-5321
▁единиц	-5322
▁проводят	-5323
кад	-5324
▁коп	-5325
▁горе	-5326
▁архите	-5327
▁месяц	-5328
▁убе	-5329
▁этап	-5330
▁производство	-5331
▁эн	-5332
▁вышла	-5333
▁pr	-5334
▁премьера	-5335
▁коммер	-5336
▁соц	-5337
▁арби	-5338
▁арти	-5339
▁двумя	-5340
▁стаби	-5341
▁обслужи	-5342
▁болга	-5343
бю	-5344
вати	-5345
▁оборо	-5346
▁правил	-5347
▁нее	-5348
"),	-5349
▁устанавливаются	-5350
-19	-5351
ционные	-5352
зве	-5353
▁аналитики	-5354
▁экспе	-5355
▁венесуэ	-5356
▁ростовской	-5357
благо	-5358
▁относи	-5359
ческом	-5360
▁48	-5361
▁устройство	-5362
▁командой	-5363
тко	-5364
штаб	-5365
▁филип	-5366
репорта	-5367
ана	-5368
▁торже	-5369
▁зданий	-5370
▁госдума	-5371
нит	-5372
▁свобод	-5373
▁протоко	-5374
лят	-5375
▁вд	-5376
▁эста	-5377
жут	-5378
▁кост	-5379
тую	-5380
▁контин	-5381
▁обсудят	-5382
▁вооруженных	-5383
▁игру	-5384
писи	-5385
тивных	-5386
▁предстоя	-5387
▁приобрет	-5388
▁горно	-5389
▁прось	-5390
эм	-5391
▁сх	-5392
▁мурман	-5393
▁разработ	-5394
▁избирателей	-5395
вий	-5396
▁электрос	-5397
▁подробнее	-5398
▁поездов	-5399
чке	-5400
▁министров	-5401
▁инвали	-5402
▁требования	-5403
▁снега	-5404
▁августе	-5405
▁официально	-5406
▁труда	-5407
▁укреп	-5408
▁финансов	-5409
▁отрав	-5410
▁вокруг	-5411
▁197	-5412
▁начался	-5413
▁моби	-5414
▁начало	-5415
▁экстре	-5416
▁вторы	-5417
кистана	-5418
дами	-5419
▁третьем	-5420
▁рим	-5421
▁создания	-5422
вый	-5423
▁чехии	-5424
▁израиля	-5425
▁0,4	-5426
тором	-5427
рас	-5428
▁мкс	-5429
▁амур	-5430
▁сна	-5431
роваться	-5432
▁цу	-5433
▁новое	-5434
▁обеспечи	-5435
нито	-5436
▁зай	-5437
▁гово	-5438
▁варша	-5439
▁энергетики	-5440
▁крыму	-5441
▁городов	-5442
▁протеста	-5443
▁социальной	-5444
▁мари	-5445
▁попали	-5446
▁сопрово	-5447
▁встречу	-5448
пова	-5449
▁весь	-5450
▁дороге	-5451
▁арестова	-5452
▁попал	-5453
▁проведут	-5454
▁(6	-5455
▁премии	-5456
лец	-5457
кавказ	-5458
▁тяжести	-5459
ханге	-5460
▁страх	-5461
▁куд	-5462
полномо	-5463
▁нападения	-5464
▁интерес	-5465
сегодня	-5466
▁сотрудничество	-5467
▁43	-5468
▁эксперти	-5469
лив	-5470
▁44	-5471
▁дорог	-5472
▁конкурса	-5473
▁университета	-5474
▁обмен	-5475
▁молодых	-5476
няют	-5477
оном	-5478
:1,	-5479
ссу	-5480
убий	-5481
▁(8	-5482
▁деятельность	-5483
▁баскетболи	-5484
ование	-5485
▁получит	-5486
▁вертолета	-5487
:0,	-5488
▁супер	-5489
eing	-5490
▁предстоит	-5491
▁войска	-5492
ина	-5493
йгу	-5494
▁предложение	-5495
▁школ	-5496
▁присво	-5497
▁номером	-5498
▁митинг	-5499
,5%	-5500
▁отчет	-5501
▁41	-5502
прос	-5503
▁заявления	-5504
ять	-5505
▁июле	-5506
▁таи	-5507
▁честь	-5508
▁кирил	-5509
▁подготовке	-5510
▁видеомо	-5511
▁хоккеисты	-5512
жан	-5513
▁копе	-5514
▁афри	-5515
мого	-5516
▁случи	-5517
единок	-5518
▁открыл	-5519
▁уи	-5520
▁удо	-5521
форму	-5522
▁выразил	-5523
▁нарушений	-5524
красно	-5525
▁старту	-5526
длов	-5527
▁boeing	-5528
▁новая	-5529
▁дово	-5530
▁пресе	-5531
▁холод	-5532
спартака	-5533
кета	-5534
▁низ	-5535
▁лучшим	-5536
▁шойгу	-5537
▁ей	-5538
▁яко	-5539
▁ждет	-5540
▁выво	-5541
▁тихо	-5542
▁убийства	-5543
▁хол	-5544
близи	-5545
▁телеканала	-5546
жное	-5547
▁включая	-5548
вф	-5549
гать	-5550
▁штаб	-5551
▁никаких	-5552
▁новогод	-5553
ческую	-5554
▁1,3	-5555
надзор	-5556
▁for	-5557
▁квартале	-5558
куз	-5559
▁минута	-5560
▁открытие	-5561
▁копеек	-5562
▁международном	-5563
▁побед	-5564
▁каи	-5565
▁владивостока	-5566
▁поединок	-5567
▁75	-5568
▁сиг	-5569
▁армении	-5570
▁уничтожен	-5571
стет	-5572
▁набрал	-5573
▁главе	-5574
▁новосибирск	-5575
пел	-5576
▁туре	-5577
▁недвижимости	-5578
▁экономического	-5579
▁судов	-5580
▁владель	-5581
▁хотят	-5582
▁якутии	-5583
▁таджи	-5584
▁сс	-5585
▁анна	-5586
▁оппозиция	-5587
▁дефици	-5588
▁редакция	-5589
пц	-5590
▁титу	-5591
▁прокуратуры	-5592
▁тек	-5593
▁дере	-5594
▁статус	-5595
▁рабочих	-5596
▁приморья	-5597
▁леони	-5598
▁египте	-5599
▁показатель	-5600
▁индоне	-5601
▁партий	-5602
▁повреждения	-5603
▁совещании	-5604
▁полузащитник	-5605
цкий	-5606
▁павод	-5607
▁предварительной	-5608
гистра	-5609
ритет	-5610
▁лондон	-5611
▁разно	-5612
рядок	-5613
▁позволит	-5614
▁пассажиры	-5615
▁распростра	-5616
▁бря	-5617
комп	-5618
щик	-5619
▁ведется	-5620
por	-5621
лков	-5622
пущен	-5623
ясь	-5624
▁адрес	-5625
стров	-5626
ard	-5627
деть	-5628
суль	-5629
▁лидера	-5630
▁продажи	-5631
▁исполнитель	-5632
▁центрального	-5633
▁заработа	-5634
сий	-5635
▁ответственность	-5636
▁помимо	-5637
▁систему	-5638
▁эр	-5639
центре	-5640
▁поддержки	-5641
▁эфире	-5642
cz	-5643
▁протя	-5644
▁англии	-5645
▁крушения	-5646
▁отметила	-5647
▁автомобили	-5648
▁разработа	-5649
льском	-5650
▁луган	-5651
шили	-5652
▁приговори	-5653
▁хоккейной	-5654
▁обязанности	-5655
▁странах	-5656
▁красноярск	-5657
гля	-5658
кло	-5659
▁западе	-5660
pp	-5661
▁псков	-5662
▁компенса	-5663
▁недалеко	-5664
гэ	-5665
▁покуп	-5666
▁российско	-5667
▁рейсы	-5668
▁института	-5669
▁викто	-5670
▁стадионе	-5671
дители	-5672
▁дэ	-5673
▁донба	-5674
▁фильма	-5675
▁договор	-5676
ews	-5677
▁молда	-5678
▁осетии	-5679
-20	-5680
ight	-5681
мини	-5682
▁крупнейших	-5683
▁резо	-5684
▁екатеринбург	-5685
нив	-5686
▁округе	-5687
▁туризма	-5688
▁афганистане	-5689
союза	-5690
суд	-5691
▁предприятий	-5692
ag	-5693
ссей	-5694
▁градо	-5695
▁кубани	-5696
▁пропусти	-5697
▁фестиваля	-5698
дило	-5699
лку	-5700
▁процеду	-5701
▁отказался	-5702
▁результатам	-5703
95	-5704
ess	-5705
▁ряда	-5706
▁брита	-5707
▁доставлен	-5708
▁доллару	-5709
ak	-5710
▁обвинения	-5711
▁португа	-5712
▁руководством	-5713
лига	-5714
▁пострадавшим	-5715
▁подозреваемых	-5716
▁всегда	-5717
▁екатерина	-5718
▁главным	-5719
▁состава	-5720
ой	-5721
▁лебеде	-5722
▁юлия	-5723
▁преодо	-5724
▁кав	-5725
шан	-5726
▁застре	-5727
ован	-5728
▁ингушетии	-5729
▁материалов	-5730
art	-5731
▁ори	-5732
▁наших	-5733
▁вело	-5734
▁учения	-5735
▁генерал	-5736
▁свердлов	-5737
ub	-5738
▁посадку	-5739
нью	-5740
тием	-5741
▁завода	-5742
▁причина	-5743
▁отечественной	-5744
▁фра	-5745
▁645-64	-5746
▁палаты	-5747
▁хри	-5748
▁рыба	-5749
▁атмос	-5750
▁y	-5751
▁бла	-5752
▁конфликт	-5753
est	-5754
▁газеты	-5755
▁проведении	-5756
▁предусмотрен	-5757
▁бор	-5758
▁увеличить	-5759
▁директоров	-5760
кварти	-5761
тном	-5762
▁шахте	-5763
▁выросли	-5764
▁осадков	-5765
▁различных	-5766
нера	-5767
▁лица	-5768
▁коммуна	-5769
шенный	-5770
▁необходимости	-5771
▁афи	-5772
▁организация	-5773
▁возрос	-5774
▁начнет	-5775
▁память	-5776
зам	-5777
совер	-5778
▁выдви	-5779
▁гендире	-5780
чек	-5781
лум	-5782
▁задей	-5783
▁сибир	-5784
▁услуг	-5785
▁согласи	-5786
▁вяче	-5787
▁девочки	-5788
тиве	-5789
▁мальчика	-5790
▁дальневосто	-5791
нных	-5792
▁хозяйства	-5793
▁лив	-5794
▁почему	-5795
▁городах	-5796
▁экспо	-5797
говой	-5798
▁годам	-5799
▁наводнения	-5800
▁сгоре	-5801
▁крупных	-5802
▁зве	-5803
12	-5804
▁направлении	-5805
▁денег	-5806
▁умень	-5807
пин	-5808
▁оке	-5809
спаса	-5810
▁посольства	-5811
▁поедин	-5812
▁финлян	-5813
▁проблема	-5814
▁последствия	-5815
▁рассчитывает	-5816
чик	-5817
лял	-5818
▁сбил	-5819
▁фсб	-5820
▁скан	-5821
▁месту	-5822
тельств	-5823
▁конгре	-5824
щений	-5825
▁глуби	-5826
▁члены	-5827
▁метра	-5828
▁сохран	-5829
коном	-5830
▁открылся	-5831
мым	-5832
юсь	-5833
▁син	-5834
▁узна	-5835
▁релизе	-5836
▁ресто	-5837
▁спецопера	-5838
▁помочь	-5839
▁упо	-5840
▁гувд	-5841
лимпий	-5842
▁условий	-5843
▁лидеров	-5844
▁трассы	-5845
▁заба	-5846
▁основной	-5847
▁самолетов	-5848
▁заве	-5849
▁сноу	-5850
▁балла	-5851
ниторин	-5852
▁фигуран	-5853
▁обследова	-5854
▁новую	-5855
▁основе	-5856
▁pol	-5857
щена	-5858
▁ссср	-5859
▁встретится	-5860
▁территорию	-5861
▁забайка	-5862
▁ипоте	-5863
▁некоторых	-5864
▁пита	-5865
▁злоумышлен	-5866
▁солда	-5867
▁соболезнования	-5868
▁музей	-5869
▁возрасте	-5870
▁официальным	-5871
совершен	-5872
▁япон	-5873
▁светлана	-5874
бири	-5875
тона	-5876
▁большого	-5877
▁установлено	-5878
▁опек	-5879
▁якобы	-5880
▁процент	-5881
▁трои	-5882
▁годом	-5883
-2013	-5884
▁атом	-5885
▁улья	-5886
▁разных	-5887
▁отвечая	-5888
▁приняла	-5889
▁ошиб	-5890
▁порядок	-5891
▁обнов	-5892
▁гаран	-5893
▁замет	-5894
▁2016	-5895
▁барре	-5896
▁смолен	-5897
пить	-5898
ай	-5899
▁трам	-5900
▁электроэнер	-5901
рили	-5902
▁рого	-5903
▁сби	-5904
▁максим	-5905
▁чр	-5906
1,	-5907
▁196	-5908
дя	-5909
▁кандидатов	-5910
▁игре	-5911
▁переверну	-5912
▁ближ	-5913
▁обеспечить	-5914
▁полномочий	-5915
тников	-5916
▁главу	-5917
▁резерв	-5918
▁боевики	-5919
▁мальчик	-5920
▁автомобиле	-5921
▁поиски	-5922
▁академии	-5923
▁намерена	-5924
▁ii	-5925
трите	-5926
▁достаточно	-5927
тельном	-5928
▁милиция	-5929
-2015	-5930
▁пообеща	-5931
инте	-5932
▁штате	-5933
▁лучше	-5934
▁форума	-5935
валю	-5936
рабаты	-5937
▁метропо	-5938
▁обвинение	-5939
▁устанавливается	-5940
▁мото	-5941
▁карти	-5942
▁заключи	-5943
▁призывает	-5944
▁издание	-5945
▁медведева	-5946
▁настоящий	-5947
зен	-5948
▁дорогах	-5949
▁али	-5950
чков	-5951
▁писа	-5952
▁англий	-5953
▁выросло	-5954
▁килограммов	-5955
надзора	-5956
▁причин	-5957
▁подробности	-5958
▁делам	-5959
▁ip	-5960
хин	-5961
▁мать	-5962
▁едино	-5963
▁джо	-5964
▁заби	-5965
▁совместно	-5966
▁концерт	-5967
▁победил	-5968
анжи	-5969
▁виз	-5970
шлось	-5971
▁выбор	-5972
▁материалы	-5973
▁днр	-5974
▁границы	-5975
жению	-5976
▁плат	-5977
▁нарушение	-5978
жар	-5979
шек	-5980
▁российским	-5981
нула	-5982
▁чув	-5983
▁либо	-5984
техниче	-5985
▁77	-5986
▁киева	-5987
▁размещен	-5988
▁эстаф	-5989
▁сессии	-5990
▁отделения	-5991
▁дис	-5992
▁арханге	-5993
тники	-5994
▁вынес	-5995
▁соответственно	-5996
▁временно	-5997
▁создании	-5998
▁позднее	-5999
▁париж	-6000
▁пры	-6001
▁возглави	-6002
лева	-6003
▁направления	-6004
▁чеш	-6005
ссер	-6006
▁600	-6007
▁оружие	-6008
сами	-6009
▁иль	-6010
▁задержала	-6011
▁челяби	-6012
▁продолжает	-6013
▁расследования	-6014
▁числа	-6015
▁бассей	-6016
▁обжа	-6017
▁выйти	-6018
ровка	-6019
▁аста	-6020
▁подозрению	-6021
чными	-6022
ваем	-6023
щиков	-6024
▁преи	-6025
▁вместо	-6026
▁ежегодно	-6027
▁начались	-6028
ьше	-6029
▁общая	-6030
▁десятки	-6031
▁товарище	-6032
▁помещения	-6033
▁мадри	-6034
▁написал	-6035
полномочен	-6036
▁диви	-6037
▁тяжело	-6038
▁пля	-6039
▁противостоя	-6040
▁хотя	-6041
:3	-6042
▁главное	-6043
▁каре	-6044
▁ртс	-6045
▁боепри	-6046
▁позиции	-6047
кос	-6048
▁унес	-6049
▁избра	-6050
▁договорен	-6051
мую	-6052
ведли	-6053
▁сведения	-6054
▁установлен	-6055
▁вылетел	-6056
▁посетит	-6057
▁реконструкции	-6058
▁хан	-6059
хуа	-6060
▁чт	-6061
дует	-6062
гон	-6063
▁хк	-6064
▁попыта	-6065
▁абха	-6066
▁средняя	-6067
цеп	-6068
амур	-6069
таль	-6070
щихся	-6071
▁ключе	-6072
▁пок	-6073
дого	-6074
▁небольшой	-6075
az	-6076
▁красноярске	-6077
жил	-6078
▁спустя	-6079
▁пья	-6080
▁диплома	-6081
▁поправки	-6082
▁зоны	-6083
▁узбе	-6084
▁самый	-6085
▁опубликован	-6086
▁поставки	-6087
-0	-6088
кими	-6089
▁поводу	-6090
▁смерть	-6091
скн	-6092
▁коор	-6093
▁хоте	-6094
развития	-6095
▁последнее	-6096
лили	-6097
▁приро	-6098
▁сва	-6099
▁ворота	-6100
:1.	-6101
гает	-6102
▁дуб	-6103
фек	-6104
▁медаль	-6105
▁средней	-6106
▁выиграла	-6107
ющихся	-6108
казе	-6109
▁гим	-6110
▁такое	-6111
сила	-6112
ленно	-6113
▁границе	-6114
метра	-6115
▁мака	-6116
▁роль	-6117
▁мэрии	-6118
▁полосу	-6119
▁четвертьфина	-6120
▁мак	-6121
▁цитирует	-6122
▁улиц	-6123
▁продукции	-6124
▁лагер	-6125
▁поможет	-6126
▁боб	-6127
▁харак	-6128
юков	-6129
▁ростом	-6130
▁столкновение	-6131
▁роса	-6132
▁скорой	-6133
▁46	-6134
▁брюссель	-6135
езжа	-6136
▁пись	-6137
▁обыграл	-6138
▁нхл	-6139
▁огнем	-6140
▁расчета	-6141
енный	-6142
▁трансля	-6143
▁участок	-6144
стных	-6145
село	-6146
▁вален	-6147
▁егэ	-6148
ota	-6149
дон	-6150
▁мяч	-6151
▁оно	-6152
▁антон	-6153
▁школе	-6154
▁матчи	-6155
стической	-6156
худ	-6157
▁церемонии	-6158
нос	-6159
▁фу	-6160
▁привлека	-6161
чности	-6162
сель	-6163
▁шторм	-6164
▁мнение	-6165
▁мю	-6166
▁пой	-6167
▁политике	-6168
▁преимуще	-6169
интер	-6170
▁завод	-6171
▁ввести	-6172
▁разрабо	-6173
▁дорожного	-6174
▁лицен	-6175
▁сами	-6176
▁работников	-6177
ведение	-6178
стрен	-6179
ook	-6180
лес	-6181
▁автоном	-6182
▁саммита	-6183
▁консульта	-6184
▁раньше	-6185
вшими	-6186
▁выяви	-6187
▁профи	-6188
▁самой	-6189
▁прибыль	-6190
стям	-6191
▁разы	-6192
▁бивалю	-6193
▁системе	-6194
▁назначил	-6195
:6,	-6196
тит	-6197
▁хими	-6198
▁проби	-6199
▁демокра	-6200
▁составив	-6201
лить	-6202
щению	-6203
дец	-6204
скор	-6205
ственным	-6206
▁денис	-6207
▁павел	-6208
ничью	-6209
▁ош	-6210
▁санкций	-6211
▁вничью	-6212
тории	-6213
▁безопасность	-6214
обо	-6215
:9	-6216
кио	-6217
▁кризис	-6218
▁граждане	-6219
▁группу	-6220
пав	-6221
▁общества	-6222
чан	-6223
ционно	-6224
▁станов	-6225
▁этаже	-6226
ллин	-6227
▁начать	-6228
▁большая	-6229
▁действи	-6230
▁детских	-6231
рита	-6232
▁алтай	-6233
▁конечно	-6234
▁серебря	-6235
ходить	-6236
▁cru	-6237
4.	-6238
▁сих	-6239
чески	-6240
▁минимум	-6241
▁депутата	-6242
▁природных	-6243
▁визита	-6244
▁экстрен	-6245
▁играх	-6246
▁отста	-6247
▁20-	-6248
▁вов	-6249
▁иска	-6250
ствовал	-6251
▁покры	-6252
▁швейцар	-6253
▁электриче	-6254
▁мероприятие	-6255
▁нега	-6256
▁домой	-6257
▁использовать	-6258
▁уте	-6259
▁появ	-6260
▁наталья	-6261
▁играть	-6262
▁нац	-6263
▁двусторон	-6264
▁худож	-6265
нси	-6266
▁китае	-6267
▁превышает	-6268
циона	-6269
▁дождь	-6270
▁праздник	-6271
▁президенты	-6272
▁занял	-6273
0-	-6274
▁открыли	-6275
▁здоровья	-6276
▁одержал	-6277
спотреб	-6278
▁телеви	-6279
▁op	-6280
зить	-6281
▁мониторин	-6282
▁продолжит	-6283
▁автомобилем	-6284
▁зали	-6285
▁моста	-6286
вшейся	-6287
▁богда	-6288
▁следственный	-6289
рных	-6290
тика	-6291
▁стоя	-6292
▁регулярного	-6293
▁потом	-6294
▁дагестан	-6295
▁генпрокура	-6296
▁твор	-6297
▁отмечают	-6298
▁прошлой	-6299
▁выясняются	-6300
▁сотрудниками	-6301
ловых	-6302
вис	-6303
▁боеприпа	-6304
▁операцию	-6305
▁реки	-6306
▁проекты	-6307
прият	-6308
▁фрон	-6309
зон	-6310
▁горит	-6311
▁электроснаб	-6312
▁роспотреб	-6313
5%	-6314
▁мель	-6315
▁дожди	-6316
▁транспор	-6317
▁выступает	-6318
тила	-6319
ционе	-6320
снабжения	-6321
▁помощник	-6322
виса	-6323
▁зао	-6324
виду	-6325
▁роско	-6326
▁торговли	-6327
новения	-6328
▁взрывное	-6329
▁футбольной	-6330
▁провод	-6331
▁оби	-6332
▁бежен	-6333
▁форма	-6334
▁неодно	-6335
▁аргенти	-6336
▁экстреми	-6337
▁приговорил	-6338
ос	-6339
▁уф	-6340
▁52	-6341
▁петр	-6342
▁канад	-6343
▁началась	-6344
теро	-6345
▁доброво	-6346
▁сыграют	-6347
▁фини	-6348
ковского	-6349
▁сухо	-6350
▁спортсменов	-6351
▁великой	-6352
▁реализова	-6353
▁кампа	-6354
катастро	-6355
▁делать	-6356
вшем	-6357
атлан	-6358
▁строя	-6359
▁вернуться	-6360
летия	-6361
▁лета	-6362
▁посол	-6363
▁первых	-6364
▁деше	-6365
▁учени	-6366
▁ракеты	-6367
▁открытия	-6368
▁участвовать	-6369
▁службу	-6370
▁третьего	-6371
▁суме	-6372
▁кубок	-6373
▁вступ	-6374
▁размести	-6375
▁эксплуатацию	-6376
тным	-6377
чева	-6378
▁ниге	-6379
▁победителем	-6380
yota	-6381
▁признан	-6382
sk	-6383
▁49	-6384
▁лива	-6385
▁пти	-6386
▁каби	-6387
▁лучших	-6388
▁градуса	-6389
▁анатолий	-6390
▁суск	-6391
▁2020	-6392
▁слуша	-6393
▁хоккею	-6394
▁полученных	-6395
▁стадиона	-6396
▁хорва	-6397
▁жилого	-6398
▁предоставля	-6399
прф	-6400
▁сотни	-6401
▁референ	-6402
▁видеомост	-6403
енти	-6404
▁дмитрия	-6405
▁всю	-6406
▁турнирной	-6407
гали	-6408
▁сделал	-6409
▁виталий	-6410
▁br	-6411
▁куда	-6412
▁кури	-6413
ктором	-6414
▁индий	-6415
▁операция	-6416
йорк	-6417
▁суток	-6418
▁объекты	-6419
▁забастов	-6420
▁понима	-6421
▁меньшей	-6422
▁понедельника	-6423
автобу	-6424
▁кабар	-6425
▁музыка	-6426
▁положи	-6427
▁полуго	-6428
кри	-6429
▁фигури	-6430
сооб	-6431
▁быстро	-6432
▁безрабо	-6433
▁спортивных	-6434
▁вариан	-6435
▁сад	-6436
▁пес	-6437
▁украину	-6438
▁6:2	-6439
▁бирже	-6440
▁смени	-6441
▁ожидает	-6442
волю	-6443
▁впере	-6444
дру	-6445
▁ухуд	-6446
od	-6447
▁посвященная	-6448
▁государственных	-6449
балка	-6450
проду	-6451
ллиона	-6452
▁санкция	-6453
▁специалистов	-6454
▁таблице	-6455
ay	-6456
id	-6457
▁очевидцев	-6458
▁организован	-6459
▁круглый	-6460
хоз	-6461
▁спекта	-6462
▁простран	-6463
▁фьючерсов	-6464
сован	-6465
▁зава	-6466
▁поте	-6467
▁проф	-6468
▁задержанных	-6469
▁поко	-6470
▁науки	-6471
▁переигра	-6472
▁частично	-6473
эт	-6474
жнему	-6475
▁нель	-6476
▁ску	-6477
▁буря	-6478
политиче	-6479
чук	-6480
▁бога	-6481
▁южного	-6482
▁роли	-6483
▁сева	-6484
▁еха	-6485
▁toyota	-6486
кому	-6487
▁вопросов	-6488
носи	-6489
около	-6490
▁потра	-6491
вались	-6492
▁общего	-6493
▁погранич	-6494
ваз	-6495
▁напря	-6496
▁рассчитан	-6497
▁кпрф	-6498
▁инвестиций	-6499
▁экспертов	-6500
▁генсе	-6501
▁выехал	-6502
▁нижний	-6503
▁the	-6504
▁жилом	-6505
▁серд	-6506
ствием	-6507
мию	-6508
ze	-6509
▁реанима	-6510
▁силовики	-6511
лежа	-6512
▁ржд	-6513
▁покупа	-6514
▁австралии	-6515
▁афганистана	-6516
.40	-6517
▁локализован	-6518
▁машину	-6519
▁рассказала	-6520
стопо	-6521
▁запрет	-6522
▁региональный	-6523
▁объявлен	-6524
▁иркутской	-6525
▁луж	-6526
▁борьбу	-6527
▁минске	-6528
▁учетом	-6529
▁возросло	-6530
▁бизнесмен	-6531
▁медицинской	-6532
▁авиакомпания	-6533
▁нуж	-6534
▁мвф	-6535
▁геор	-6536
▁рубеж	-6537
▁кабардино	-6538
ала	-6539
кии	-6540
ждают	-6541
▁разо	-6542
декса	-6543
▁блоки	-6544
▁запусти	-6545
▁игроков	-6546
дуют	-6547
▁цели	-6548
▁ои	-6549
▁принци	-6550
▁валерий	-6551
▁посту	-6552
▁основном	-6553
совершенно	-6554
▁продолжают	-6555
дзе	-6556
формы	-6557
▁пишет	-6558
▁зер	-6559
▁избран	-6560
book	-6561
▁машина	-6562
▁исполня	-6563
▁возбудили	-6564
▁жест	-6565
▁невы	-6566
роснеф	-6567
значи	-6568
▁набрав	-6569
вига	-6570
▁250	-6571
▁текущем	-6572
▁мона	-6573
▁имеют	-6574
▁минск	-6575
▁агентстве	-6576
▁опубликова	-6577
▁возвраща	-6578
▁bl	-6579
▁друг	-6580
юк	-6581
лым	-6582
▁оформ	-6583
▁вторым	-6584
▁входит	-6585
▁махачкала	-6586
▁выру	-6587
▁бивалютной	-6588
▁седь	-6589
▁смотрите	-6590
▁областной	-6591
-6	-6592
▁женщину	-6593
▁аукци	-6594
▁организаторы	-6595
▁вход	-6596
▁коали	-6597
снабжение	-6598
▁мемо	-6599
дпр	-6600
▁0,1	-6601
▁терак	-6602
▁штата	-6603
прежнему	-6604
рией	-6605
▁джон	-6606
стовер	-6607
▁атмосфер	-6608
▁сумма	-6609
▁показал	-6610
▁пожарной	-6611
▁назначения	-6612
▁замен	-6613
пет	-6614
тная	-6615
▁последствий	-6616
ul	-6617
:0.	-6618
вшему	-6619
преде	-6620
▁ке	-6621
▁рель	-6622
▁автор	-6623
▁госдуму	-6624
7,	-6625
▁гара	-6626
▁през	-6627
▁возглавил	-6628
▁джи	-6629
▁румы	-6630
жности	-6631
▁огром	-6632
▁сформи	-6633
▁персона	-6634
▁ch	-6635
▁программ	-6636
▁комменти	-6637
аэро	-6638
▁аза	-6639
▁вечер	-6640
▁вернулся	-6641
▁магистра	-6642
▁осень	-6643
▁воду	-6644
▁скор	-6645
▁болельщиков	-6646
сред	-6647
▁остальные	-6648
▁челябинской	-6649
знен	-6650
▁круге	-6651
▁концу	-6652
возмо	-6653
▁озна	-6654
▁потен	-6655
рованный	-6656
▁токио	-6657
▁лидеры	-6658
▁департамент	-6659
▁целевой	-6660
йорке	-6661
▁заявлении	-6662
▁студентов	-6663
▁хода	-6664
▁вынужден	-6665
ренко	-6666
▁участка	-6667
▁устра	-6668
▁биография	-6669
▁уполномочен	-6670
▁пакет	-6671
▁работал	-6672
▁йо	-6673
▁ульянов	-6674
▁полицейского	-6675
класс	-6676
▁нава	-6677
▁посеян	-6678
▁(19	-6679
▁ники	-6680
▁продуктов	-6681
▁администрация	-6682
.45	-6683
бле	-6684
▁городу	-6685
▁51	-6686
рица	-6687
▁олимпиаде	-6688
зина	-6689
шина	-6690
▁заслу	-6691
▁чиновников	-6692
▁сегодняшний	-6693
зой	-6694
завод	-6695
▁школьников	-6696
мила	-6697
никах	-6698
▁социально	-6699
▁форум	-6700
▁страну	-6701
▁прогремел	-6702
▁гло	-6703
▁глубине	-6704
▁самарской	-6705
пример	-6706
▁главк	-6707
зывает	-6708
▁ца	-6709
▁странами	-6710
▁ws	-6711
▁лаг	-6712
▁патру	-6713
риса	-6714
отече	-6715
▁раскры	-6716
▁сербии	-6717
вай	-6718
▁лай	-6719
▁рогозин	-6720
дел	-6721
цова	-6722
▁обсудили	-6723
▁имя	-6724
▁кален	-6725
▁имущества	-6726
▁проводить	-6727
мас	-6728
▁истре	-6729
acebook	-6730
▁краснода	-6731
▁плохо	-6732
▁такси	-6733
▁лучшие	-6734
2.	-6735
▁ах	-6736
▁церемония	-6737
▁3,5	-6738
▁app	-6739
бурга	-6740
▁армей	-6741
▁новосибирской	-6742
6,	-6743
▁ожо	-6744
пой	-6745
сиа	-6746
▁54	-6747
▁лдпр	-6748
▁экипаж	-6749
▁направлены	-6750
▁кэ	-6751
кину	-6752
▁дпс	-6753
▁зарубе	-6754
бьев	-6755
▁класса	-6756
▁нижегородской	-6757
ево	-6758
▁парков	-6759
▁футбола	-6760
▁серб	-6761
рс	-6762
▁сур	-6763
тивной	-6764
▁повыси	-6765
▁пройти	-6766
▁преступлений	-6767
мова	-6768
▁дже	-6769
▁километра	-6770
нений	-6771
▁найти	-6772
▁снижа	-6773
▁полуфинал	-6774
▁договорились	-6775
хими	-6776
▁камер	-6777
▁внутри	-6778
▁ды	-6779
▁лукашенко	-6780
льзова	-6781
ременно	-6782
▁повлия	-6783
▁огнестре	-6784
▁зара	-6785
▁корзины	-6786
mail	-6787
либо	-6788
▁пришлось	-6789
отечествен	-6790
▁микроавтобу	-6791
uc	-6792
▁погоды	-6793
▁активно	-6794
▁facebook	-6795
гина	-6796
мэра	-6797
▁800	-6798
провода	-6799
▁побережья	-6800
▁несовершенно	-6801
▁кири	-6802
▁налог	-6803
▁правила	-6804
▁сб	-6805
хова	-6806
▁скорее	-6807
▁контракта	-6808
газе	-6809
вался	-6810
▁многих	-6811
пожар	-6812
▁льго	-6813
▁таилан	-6814
дать	-6815
тури	-6816
▁экспорт	-6817
▁выступления	-6818
▁47	-6819
▁кс	-6820
.15	-6821
▁победителей	-6822
ад	-6823
▁наме	-6824
▁опере	-6825
▁штаба	-6826
▁цунами	-6827
ьми	-6828
▁нев	-6829
▁вошли	-6830
▁рав	-6831
эконом	-6832
▁полага	-6833
▁колум	-6834
▁услов	-6835
▁уточняет	-6836
пп	-6837
▁поддержке	-6838
▁соотечествен	-6839
▁стартует	-6840
ющими	-6841
▁башки	-6842
▁бронз	-6843
▁принимать	-6844
▁рожде	-6845
▁беспорядков	-6846
▁бара	-6847
▁миро	-6848
▁масштаб	-6849
▁похищен	-6850
▁эвакуировали	-6851
")	-6852
кузнец	-6853
▁сканда	-6854
▁числен	-6855
▁константин	-6856
тим	-6857
ером	-6858
золо	-6859
▁вузов	-6860
▁потушен	-6861
▁сильного	-6862
дио	-6863
пись	-6864
▁площадке	-6865
▁азии	-6866
▁музея	-6867
▁санти	-6868
▁механи	-6869
▁зоопар	-6870
▁разгро	-6871
ленко	-6872
▁взял	-6873
▁тоже	-6874
▁ведет	-6875
▁ряде	-6876
павлов	-6877
▁травм	-6878
▁заняла	-6879
▁инфраструктуры	-6880
▁следующей	-6881
▁нары	-6882
▁сибири	-6883
▁состоялся	-6884
▁севастопо	-6885
назна	-6886
▁диск	-6887
▁оштраф	-6888
▁удар	-6889
▁азербайджа	-6890
пец	-6891
▁изъяли	-6892
▁памяти	-6893
▁пришли	-6894
11	-6895
▁заг	-6896
▁пятеро	-6897
▁успешно	-6898
▁рфс	-6899
▁урале	-6900
▁еврозо	-6901
▁особенно	-6902
лился	-6903
▁охва	-6904
▁екатеринбурге	-6905
гоне	-6906
шена	-6907
▁востока	-6908
▁трагедии	-6909
экс	-6910
▁бед	-6911
▁тверской	-6912
▁миллиметров	-6913
▁федеральных	-6914
скоре	-6915
▁счету	-6916
▁театр	-6917
▁размер	-6918
▁давление	-6919
ремя	-6920
▁порядке	-6921
два	-6922
▁обыграли	-6923
торе	-6924
▁футбольный	-6925
▁700	-6926
▁клад	-6927
▁наруши	-6928
▁говорить	-6929
▁пешеход	-6930
▁происходит	-6931
▁плен	-6932
▁выполня	-6933
▁местной	-6934
",-	-6935
:00	-6936
мый	-6937
дении	-6938
▁фана	-6939
▁полуфинале	-6940
▁120	-6941
▁защита	-6942
▁угрожа	-6943
▁дал	-6944
▁хим	-6945
▁отрасли	-6946
▁баллов	-6947
▁мирового	-6948
▁доллар	-6949
удов	-6950
ang	-6951
▁шоу	-6952
▁гимна	-6953
▁подоро	-6954
▁питер	-6955
▁проходя	-6956
▁устройства	-6957
▁добавила	-6958
▁произошли	-6959
нится	-6960
маз	-6961
▁вулка	-6962
▁подготовку	-6963
▁соревнованиях	-6964
саха	-6965
▁паци	-6966
▁состоялась	-6967
▁поя	-6968
кцион	-6969
▁пятницы	-6970
▁обсудить	-6971
▁1,4	-6972
▁гаи	-6973
▁акцию	-6974
▁авиакатастро	-6975
▁строительству	-6976
▁взы	-6977
▁юно	-6978
ницах	-6979
дерлан	-6980
▁установили	-6981
▁бельгии	-6982
▁ушел	-6983
рологи	-6984
▁генна	-6985
▁росту	-6986
▁задача	-6987
дже	-6988
банк	-6989
екре	-6990
блоки	-6991
▁эль	-6992
▁туве	-6993
▁взрос	-6994
доб	-6995
▁конкре	-6996
вол	-6997
луб	-6998
гаре	-6999
ственное	-7000
▁разбился	-7001
▁казахстан	-7002
менты	-7003
пок	-7004
шку	-7005
▁доказа	-7006
▁перено	-7007
▁прежде	-7008
▁субъек	-7009
▁детского	-7010
хам	-7011
▁экономической	-7012
▁керри	-7013
▁легко	-7014
▁сказать	-7015
.20	-7016
провод	-7017
▁машине	-7018
шими	-7019
▁касается	-7020
▁самостоя	-7021
ниях	-7022
ленте	-7023
▁ищут	-7024
▁подс	-7025
▁парке	-7026
▁re	-7027
▁базы	-7028
▁смен	-7029
▁православ	-7030
▁10-	-7031
▁2005	-7032
▁какой	-7033
▁жалобу	-7034
▁замминистра	-7035
▁0,2	-7036
▁андрея	-7037
▁визитом	-7038
▁координа	-7039
▁набережной	-7040
▁корот	-7041
▁вас	-7042
ляться	-7043
▁этажа	-7044
видуаль	-7045
ob	-7046
▁(9	-7047
▁территория	-7048
жду	-7049
▁хара	-7050
▁октябрь	-7051
▁посмо	-7052
▁нелега	-7053
▁ареста	-7054
▁продажу	-7055
▁властями	-7056
▁журналиста	-7057
▁свердловской	-7058
iv	-7059
мая	-7060
▁продаже	-7061
▁грузовик	-7062
▁спикер	-7063
▁топлива	-7064
▁новосибирска	-7065
▁скорость	-7066
▁4,	-7067
дафи	-7068
▁континента	-7069
балкарии	-7070
виль	-7071
▁лау	-7072
банка	-7073
▁контроли	-7074
▁установить	-7075
пят	-7076
▁мировые	-7077
▁индивидуаль	-7078
лине	-7079
,6%	-7080
▁оте	-7081
▁фифа	-7082
правил	-7083
▁видов	-7084
▁песков	-7085
▁полета	-7086
▁ядерной	-7087
нт	-7088
▁взятки	-7089
▁известный	-7090
▁уилья	-7091
▁динами	-7092
▁арбитра	-7093
▁11-	-7094
▁субси	-7095
твра	-7096
▁академи	-7097
▁новгороде	-7098
ехать	-7099
▁решил	-7100
▁подрост	-7101
летних	-7102
▁владе	-7103
крас	-7104
метал	-7105
честер	-7106
рованной	-7107
▁предела	-7108
▁празднова	-7109
▁генерального	-7110
зни	-7111
льев	-7112
▁вину	-7113
▁кузба	-7114
▁договора	-7115
▁сбербанка	-7116
▁американский	-7117
▁похитили	-7118
▁снизилась	-7119
▁недово	-7120
▁образ	-7121
ведений	-7122
▁каддафи	-7123
▁йем	-7124
▁теп	-7125
▁истреби	-7126
помо	-7127
устрой	-7128
▁актер	-7129
▁празднич	-7130
▁привет	-7131
▁переход	-7132
▁материалах	-7133
▁роскосмо	-7134
▁нормы	-7135
▁объеди	-7136
▁спасателей	-7137
▁53	-7138
▁мол	-7139
▁контроля	-7140
▁предотвра	-7141
туре	-7142
▁сложи	-7143
▁недель	-7144
▁нельзя	-7145
▁подразделения	-7146
щества	-7147
▁нападение	-7148
▁моз	-7149
▁сол	-7150
▁диало	-7151
ченные	-7152
жки	-7153
дора	-7154
ами	-7155
▁кбр	-7156
▁ощу	-7157
▁века	-7158
▁окна	-7159
▁погод	-7160
▁ветеранов	-7161
овать	-7162
завтра	-7163
▁усилия	-7164
port	-7165
действие	-7166
▁задействова	-7167
▁гибель	-7168
▁подписали	-7169
▁правительстве	-7170
▁активе	-7171
▁погибшего	-7172
▁строительстве	-7173
▁гидрометцентра	-7174
▁отметили	-7175
▁неоднокра	-7176
▁рами	-7177
транс	-7178
▁удара	-7179
▁победа	-7180
▁животных	-7181
▁снижение	-7182
▁махачкале	-7183
▁борт	-7184
▁спектак	-7185
▁петропавлов	-7186
стры	-7187
нка	-7188
▁кирилл	-7189
сейчас	-7190
лень	-7191
ципли	-7192
:-	-7193
▁кубке	-7194
вия	-7195
▁55	-7196
полу	-7197
сках	-7198
ющую	-7199
▁разгово	-7200
шке	-7201
север	-7202
сенко	-7203
▁собирается	-7204
▁правам	-7205
▁вячеслав	-7206
▁кова	-7207
▁якут	-7208
тельную	-7209
▁прош	-7210
▁приоритет	-7211
▁транспорте	-7212
▁метрополит	-7213
▁правозащи	-7214
▁подозревается	-7215
▁дорогу	-7216
▁бельгий	-7217
▁американского	-7218
▁apple	-7219
▁госде	-7220
▁вскоре	-7221
▁выиграли	-7222
кель	-7223
тского	-7224
▁форму	-7225
▁микробло	-7226
▁представителями	-7227
▁повер	-7228
▁дважды	-7229
▁бума	-7230
com	-7231
пода	-7232
пуске	-7233
програм	-7234
▁ополчен	-7235
▁присоеди	-7236
▁история	-7237
▁категории	-7238
one	-7239
клады	-7240
▁называ	-7241
▁взрывов	-7242
▁скп	-7243
дится	-7244
▁взыска	-7245
▁швед	-7246
▁дама	-7247
▁целях	-7248
▁приводит	-7249
▁ураль	-7250
зировать	-7251
транспорт	-7252
▁передачи	-7253
▁рассмотрение	-7254
▁предупреждение	-7255
енты	-7256
▁выступит	-7257
▁объеме	-7258
вто	-7259
сило	-7260
рованные	-7261
▁вторника	-7262
▁общественных	-7263
рованного	-7264
▁космонав	-7265
pe	-7266
▁увд	-7267
▁факт	-7268
▁среднем	-7269
▁запуск	-7270
▁сына	-7271
ефа	-7272
▁of	-7273
▁половине	-7274
ленным	-7275
▁защите	-7276
зию	-7277
наси	-7278
▁чили	-7279
▁объекта	-7280
▁соору	-7281
▁охран	-7282
тово	-7283
▁зале	-7284
▁показали	-7285
мили	-7286
▁благот	-7287
▁12-	-7288
▁название	-7289
нилось	-7290
рови	-7291
▁друга	-7292
▁самого	-7293
▁645-64-7	-7294
▁опроверг	-7295
▁травмами	-7296
▁волейболи	-7297
▁орби	-7298
▁уника	-7299
шков	-7300
▁пле	-7301
▁циф	-7302
▁минима	-7303
▁мкад	-7304
▁подвер	-7305
▁посет	-7306
▁номина	-7307
▁вид	-7308
людения	-7309
▁идут	-7310
▁пилот	-7311
▁четверга	-7312
▁опти	-7313
зами	-7314
града	-7315
▁жителям	-7316
▁73	-7317
▁лечение	-7318
две	-7319
зай	-7320
▁спра	-7321
▁решить	-7322
▁пассажира	-7323
жела	-7324
солю	-7325
▁леса	-7326
▁оформи	-7327
▁очередной	-7328
▁спортивной	-7329
▁194	-7330
▁снова	-7331
▁леонид	-7332
▁канал	-7333
▁анаста	-7334
▁патриарх	-7335
▁74	-7336
льными	-7337
▁плава	-7338
▁посева	-7339
▁героина	-7340
▁недоста	-7341
▁загорелся	-7342
вченко	-7343
▁основные	-7344
▁скончалась	-7345
ллет	-7346
чит	-7347
▁пообещал	-7348
ti	-7349
▁юриди	-7350
▁рассмот	-7351
▁ираке	-7352
обе	-7353
▁продлил	-7354
вос	-7355
мати	-7356
▁матери	-7357
▁потреб	-7358
tr	-7359
▁правления	-7360
pr	-7361
▁mer	-7362
рского	-7363
▁гражданина	-7364
▁учреждений	-7365
▁теннисистка	-7366
▁осенью	-7367
▁острове	-7368
▁ходатай	-7369
▁дальнего	-7370
▁единой	-7371
▁отре	-7372
▁двадца	-7373
▁привати	-7374
▁доставили	-7375
▁проводятся	-7376
▁25-	-7377
▁види	-7378
▁выбро	-7379
▁инфек	-7380
▁решили	-7381
▁перестре	-7382
▁опасности	-7383
▁финляндии	-7384
ктер	-7385
рена	-7386
▁инстру	-7387
▁завершить	-7388
▁завершится	-7389
▁олимпийского	-7390
началь	-7391
фестива	-7392
▁ветера	-7393
▁гражданин	-7394
▁прошедшая	-7395
▁промышленности	-7396
▁сю	-7397
▁сити	-7398
▁итоге	-7399
▁украинских	-7400
хар	-7401
▁визит	-7402
▁госпо	-7403
▁последних	-7404
▁религи	-7405
▁свидете	-7406
▁кы	-7407
▁мотоци	-7408
▁столичной	-7409
кера	-7410
аэрофло	-7411
▁вторая	-7412
▁иномарки	-7413
▁сотрудничестве	-7414
▁парк	-7415
▁россиянки	-7416
▁sk	-7417
нала	-7418
фона	-7419
▁1,1	-7420
повед	-7421
сахалин	-7422
щими	-7423
тэ	-7424
▁непри	-7425
▁справился	-7426
вей	-7427
▁проез	-7428
ровок	-7429
▁подал	-7430
▁миллион	-7431
▁эй	-7432
ходом	-7433
ехала	-7434
▁мутко	-7435
мали	-7436
▁возбуждении	-7437
▁инжен	-7438
▁инвест	-7439
▁зрителей	-7440
▁призем	-7441
манчестер	-7442
▁синоптики	-7443
хико	-7444
▁графи	-7445
▁интернете	-7446
▁лиге	-7447
▁обез	-7448
кового	-7449
▁залож	-7450
▁указы	-7451
▁еврокоми	-7452
▁таба	-7453
матического	-7454
бек	-7455
дена	-7456
жную	-7457
▁обжалова	-7458
▁13.00	-7459
▁донецкой	-7460
▁очи	-7461
▁чуть	-7462
▁2004	-7463
▁григо	-7464
▁заверша	-7465
▁мексикан	-7466
▁подписан	-7467
мф	-7468
▁костро	-7469
▁предполагается	-7470
▁топ	-7471
26	-7472
▁неизвестных	-7473
▁регули	-7474
▁такого	-7475
▁открыть	-7476
▁хран	-7477
▁голки	-7478
▁минздрав	-7479
▁4,5	-7480
▁флота	-7481
▁самолеты	-7482
▁спортивного	-7483
▁президенту	-7484
ik	-7485
дым	-7486
года	-7487
стин	-7488
▁конь	-7489
▁столкновении	-7490
тт	-7491
▁задол	-7492
▁церкви	-7493
▁диаг	-7494
▁памятник	-7495
▁брюссе	-7496
оби	-7497
▁застрой	-7498
-10	-7499
▁услуги	-7500
▁обратились	-7501
▁специалист	-7502
▁плате	-7503
ведом	-7504
▁58	-7505
▁сын	-7506
▁железной	-7507
▁избежа	-7508
▁квалификации	-7509
▁команди	-7510
,3%	-7511
▁разде	-7512
▁покинуть	-7513
▁найдены	-7514
,7%	-7515
▁третьей	-7516
▁воспитан	-7517
▁останется	-7518
▁появилась	-7519
▁офис	-7520
▁ирака	-7521
▁липец	-7522
▁опусти	-7523
▁сеть	-7524
▁перми	-7525
▁совещание	-7526
▁подорожа	-7527
зах	-7528
шему	-7529
▁кладби	-7530
▁наличи	-7531
▁будущем	-7532
▁заявляет	-7533
▁подготовить	-7534
▁виктора	-7535
▁добавив	-7536
▁благотворитель	-7537
зыва	-7538
▁пекин	-7539
▁дальнем	-7540
жом	-7541
произ	-7542
▁установлены	-7543
uss	-7544
▁переу	-7545
▁предназна	-7546
газпро	-7547
▁кис	-7548
▁мировых	-7549
▁подтвердили	-7550
вело	-7551
▁главной	-7552
▁теннисном	-7553
жить	-7554
единая	-7555
спра	-7556
▁триллиона	-7557
▁дополнительные	-7558
▁вторую	-7559
▁экономике	-7560
если	-7561
▁опа	-7562
▁лиши	-7563
▁забра	-7564
▁крупном	-7565
локомотива	-7566
▁ww	-7567
▁уефа	-7568
▁систем	-7569
▁основных	-7570
▁76	-7571
▁воспо	-7572
▁лидирует	-7573
▁удовлетво	-7574
.50	-7575
мей	-7576
▁отказ	-7577
▁врачей	-7578
▁обраща	-7579
▁офиц	-7580
▁австралий	-7581
▁новокузнец	-7582
ьет	-7583
▁рады	-7584
▁домах	-7585
▁самара	-7586
▁берегов	-7587
▁президентских	-7588
▁кабу	-7589
▁brent	-7590
меть	-7591
▁станут	-7592
▁ориенти	-7593
▁знако	-7594
▁леген	-7595
▁запрещен	-7596
▁15-	-7597
▁отрица	-7598
▁тренером	-7599
шк	-7600
везли	-7601
▁резолю	-7602
эр	-7603
▁light	-7604
нде	-7605
металлу	-7606
цо	-7607
▁мигрантов	-7608
▁париже	-7609
▁технологий	-7610
▁туни	-7611
кат	-7612
вшее	-7613
▁усы	-7614
▁2018	-7615
▁решению	-7616
▁оказалась	-7617
ющее	-7618
▁кореи	-7619
▁завоевала	-7620
▁астрахан	-7621
▁ели	-7622
рение	-7623
ментов	-7624
ционное	-7625
▁отборо	-7626
▁посольство	-7627
гур	-7628
▁".	-7629
амери	-7630
▁капитан	-7631
▁уступил	-7632
сомо	-7633
▁кубо	-7634
▁юрия	-7635
▁девушка	-7636
▁баррелей	-7637
▁сбербанк	-7638
▁хака	-7639
▁химо	-7640
▁швеции	-7641
▁перспективы	-7642
жным	-7643
емым	-7644
филь	-7645
▁обвиняемого	-7646
▁нес	-7647
▁физ	-7648
▁трибу	-7649
камчат	-7650
▁публика	-7651
сада	-7652
томь	-7653
▁юбилей	-7654
этажного	-7655
▁si	-7656
льцев	-7657
▁сожа	-7658
▁обещает	-7659
▁нидерлан	-7660
▁грип	-7661
▁кандидат	-7662
невзве	-7663
▁минфин	-7664
сию	-7665
чики	-7666
способ	-7667
▁михаила	-7668
▁рассказали	-7669
,8%	-7670
lin	-7671
▁неис	-7672
▁восточной	-7673
▁поступало	-7674
icle	-7675
змом	-7676
▁воин	-7677
▁абхазии	-7678
▁старший	-7679
▁нужда	-7680
▁отрави	-7681
▁полномочия	-7682
▁средневзве	-7683
жев	-7684
▁ас	-7685
▁регистрации	-7686
▁местах	-7687
▁склад	-7688
▁вернуть	-7689
▁календа	-7690
▁характер	-7691
.10	-7692
нят	-7693
ковича	-7694
начала	-7695
▁подклю	-7696
▁крупный	-7697
▁правонару	-7698
тивные	-7699
▁одному	-7700
▁очками	-7701
▁обратился	-7702
кб	-7703
▁соко	-7704
▁неосторо	-7705
чера	-7706
▁прерва	-7707
▁юар	-7708
виенко	-7709
▁ликвидирован	-7710
летию	-7711
этажном	-7712
▁алексея	-7713
рный	-7714
▁двой	-7715
▁наук	-7716
▁абсолю	-7717
▁массовых	-7718
▁соверша	-7719
▁матвиенко	-7720
нда	-7721
▁дочь	-7722
сор	-7723
ьево	-7724
▁автодороги	-7725
сити	-7726
фаль	-7727
▁военный	-7728
чень	-7729
▁мехико	-7730
▁повтор	-7731
▁группового	-7732
des	-7733
▁оренбург	-7734
▁универсиа	-7735
▁гражданской	-7736
▁краснодарского	-7737
что	-7738
тьев	-7739
▁парка	-7740
развитие	-7741
националь	-7742
▁построят	-7743
▁судом	-7744
▁завоевал	-7745
▁решается	-7746
▁рублю	-7747
▁возможных	-7748
▁незаконно	-7749
▁опыт	-7750
▁сцена	-7751
article	-7752
▁спецоперации	-7753
▁сильней	-7754
▁реке	-7755
▁затруд	-7756
▁находилось	-7757
гове	-7758
▁петров	-7759
▁разыски	-7760
▁евросоюза	-7761
▁обрушения	-7762
▁главные	-7763
▁строить	-7764
▁многочис	-7765
▁украинского	-7766
▁илья	-7767
▁модернизации	-7768
челси	-7769
▁думы	-7770
16	-7771
шкина	-7772
▁опья	-7773
хозя	-7774
▁мост	-7775
▁авиации	-7776
▁региональных	-7777
▁мошенничестве	-7778
▁пистолет	-7779
▁сом	-7780
споко	-7781
▁развед	-7782
▁раненых	-7783
▁15.00	-7784
▁маршрут	-7785
▁размещения	-7786
стке	-7787
▁14.00	-7788
▁полном	-7789
мбу	-7790
▁тел	-7791
▁теракт	-7792
▁настро	-7793
див	-7794
▁баш	-7795
▁положение	-7796
▁увеличилось	-7797
лая	-7798
рного	-7799
▁петербургского	-7800
▁неоднократно	-7801
▁56	-7802
вающих	-7803
▁рейса	-7804
▁самаре	-7805
▁изготов	-7806
▁нападении	-7807
ran	-7808
▁волгоград	-7809
▁воздух	-7810
▁стартова	-7811
▁принадлежит	-7812
▁пострадавший	-7813
▁детьми	-7814
▁news	-7815
▁вклад	-7816
▁виновным	-7817
▁отделение	-7818
зок	-7819
ьют	-7820
▁вопросу	-7821
▁погибла	-7822
▁дистанции	-7823
▁национальный	-7824
▁фскн	-7825
надцать	-7826
▁остался	-7827
▁территориа	-7828
▁начнут	-7829
▁заключил	-7830
▁электроэнергии	-7831
▁фрг	-7832
▁сало	-7833
▁неисправ	-7834
▁планы	-7835
▁рада	-7836
▁демонстра	-7837
▁народного	-7838
▁четвертый	-7839
▁дистан	-7840
▁красноярском	-7841
▁сбежа	-7842
▁государство	-7843
ленном	-7844
▁часто	-7845
▁эпицентр	-7846
▁кузнецова	-7847
▁секретарь	-7848
оке	-7849
арсена	-7850
▁маршруту	-7851
▁режиссер	-7852
iss	-7853
теров	-7854
▁спортивный	-7855
еремет	-7856
▁невозмо	-7857
▁ремонта	-7858
▁mar	-7859
▁синоптиков	-7860
правитель	-7861
▁презента	-7862
▁путь	-7863
▁издания	-7864
лос	-7865
нился	-7866
ряз	-7867
ровку	-7868
▁приходи	-7869
▁ограничения	-7870
▁могу	-7871
▁поры	-7872
▁вадим	-7873
▁несан	-7874
▁путев	-7875
▁префек	-7876
▁спокой	-7877
▁чиновник	-7878
ov	-7879
моро	-7880
▁устран	-7881
▁градострои	-7882
слов	-7883
▁шара	-7884
▁глоба	-7885
▁цвета	-7886
▁расходы	-7887
▁сообщал	-7888
▁прокурор	-7889
▁отли	-7890
▁снаря	-7891
▁несанкциони	-7892
ллер	-7893
ложил	-7894
▁ростове	-7895
шут	-7896
▁королев	-7897
бков	-7898
▁револю	-7899
▁никогда	-7900
▁дисципли	-7901
▁инвесторов	-7902
фов	-7903
▁юни	-7904
▁гром	-7905
▁робер	-7906
▁выставки	-7907
▁повышение	-7908
▁политических	-7909
вла	-7910
мога	-7911
▁1/8	-7912
▁тому	-7913
▁снижения	-7914
сем	-7915
лово	-7916
▁нарышкин	-7917
▁бюро	-7918
▁11.00	-7919
▁борис	-7920
▁выпусти	-7921
жского	-7922
▁кле	-7923
▁лекар	-7924
▁выезде	-7925
американ	-7926
▁тбили	-7927
▁заложен	-7928
▁незначи	-7929
▁перемен	-7930
емом	-7931
▁продолжаются	-7932
▁состоявшаяся	-7933
▁нальчик	-7934
▁паралимпий	-7935
▁оборудования	-7936
перы	-7937
рубин	-7938
▁аэрод	-7939
▁смесь	-7940
▁расска	-7941
▁белорусс	-7942
▁архитекту	-7943
▁сопровожда	-7944
лект	-7945
▁195	-7946
▁поставок	-7947
пен	-7948
укра	-7949
▁заммэра	-7950
,55	-7951
▁связь	-7952
▁евгения	-7953
▁совершении	-7954
▁сбы	-7955
▁просят	-7956
▁трой	-7957
▁форвар	-7958
▁покинул	-7959
▁палестин	-7960
ведены	-7961
шестер	-7962
▁открылась	-7963
▁кот	-7964
тации	-7965
▁оставил	-7966
▁конкурен	-7967
▁футболистов	-7968
лее	-7969
▁65	-7970
▁астахов	-7971
▁представит	-7972
▁звез	-7973
▁закрытия	-7974
▁подмосковном	-7975
▁тв	-7976
дови	-7977
▁30-	-7978
▁волгограде	-7979
▁дать	-7980
▁жилой	-7981
▁пребы	-7982
▁скрылся	-7983
мыка	-7984
сала	-7985
туаль	-7986
▁сыграл	-7987
рест	-7988
▁ними	-7989
▁синь	-7990
▁задачи	-7991
технологи	-7992
▁психологи	-7993
ii	-7994
денте	-7995
▁протяжении	-7996
▁инвалидов	-7997
мое	-7998
▁вами	-7999
▁ирак	-8000
▁окружа	-8001
▁следующие	-8002
▁кандидатуру	-8003
реда	-8004
▁выпа	-8005
▁путем	-8006
▁бороться	-8007
стая	-8008
▁ранен	-8009
▁молдавии	-8010
▁собрания	-8011
▁домодедово	-8012
▁группировки	-8013
евро	-8014
▁бес	-8015
▁уско	-8016
▁брифин	-8017
▁ил	-8018
▁гостях	-8019
▁тенниси	-8020
▁форуме	-8021
▁социальных	-8022
▁заводе	-8023
экономразвития	-8024
▁государственный	-8025
▁белгород	-8026
▁вода	-8027
▁деле	-8028
▁сильные	-8029
▁закончилась	-8030
▁следственные	-8031
хина	-8032
чатки	-8033
▁стихи	-8034
▁класси	-8035
▁швейцарии	-8036
▁религиоз	-8037
▁62	-8038
▁пойдет	-8039
▁аппарата	-8040
▁документе	-8041
▁повышения	-8042
▁ход	-8043
▁предлож	-8044
▁эстонии	-8045
летнюю	-8046
▁башкирии	-8047
▁травму	-8048
▁частью	-8049
▁молодой	-8050
▁этаж	-8051
стого	-8052
▁бурятии	-8053
▁повышен	-8054
▁рио	-8055
▁але	-8056
▁джей	-8057
▁туро	-8058
▁титул	-8059
▁пятигор	-8060
метро	-8061
▁жертвах	-8062
▁управлении	-8063
▁заку	-8064
▁тюмен	-8065
▁вам	-8066
▁силами	-8067
▁красной	-8068
▁рубежом	-8069
▁сел	-8070
▁иметь	-8071
▁самое	-8072
▁сказано	-8073
▁сначала	-8074
хом	-8075
▁пакистан	-8076
▁изо	-8077
▁индонезии	-8078
▁удостовер	-8079
▁кубометров	-8080
▁руководства	-8081
▁4-	-8082
закон	-8083
ологи	-8084
▁манда	-8085
единой	-8086
▁вся	-8087
▁генсек	-8088
▁выступление	-8089
рьков	-8090
95)	-8091
▁ведутся	-8092
▁проходить	-8093
▁радика	-8094
▁рестора	-8095
контро	-8096
▁другим	-8097
▁комна	-8098
▁австрий	-8099
▁аква	-8100
▁мане	-8101
сну	-8102
▁14-	-8103
▁напо	-8104
▁правоохрани	-8105
▁мето	-8106
▁диску	-8107
▁сильно	-8108
▁выставке	-8109
▁поступила	-8110
▁предлагают	-8111
вов	-8112
▁брян	-8113
▁препода	-8114
нх	-8115
▁музыкан	-8116
8,	-8117
▁спутник	-8118
▁школах	-8119
▁сопротив	-8120
▁искусства	-8121
▁век	-8122
тивная	-8123
▁амурской	-8124
▁de	-8125
▁фур	-8126
ционная	-8127
берг	-8128
▁рези	-8129
▁художе	-8130
ственную	-8131
▁приамур	-8132
▁выхода	-8133
▁мадрид	-8134
пан	-8135
▁солне	-8136
ктике	-8137
▁банки	-8138
▁госсекре	-8139
▁задым	-8140
▁инфляция	-8141
▁госдуме	-8142
▁северного	-8143
▁значительно	-8144
▁сантиметров	-8145
▁муниципальных	-8146
▁трол	-8147
▁кабмин	-8148
▁территорий	-8149
ud	-8150
▁огла	-8151
▁взяли	-8152
▁голланд	-8153
▁каких	-8154
▁опьянения	-8155
▁геро	-8156
ждению	-8157
▁микроблоге	-8158
▁лод	-8159
▁другом	-8160
▁прохоров	-8161
▁оценивается	-8162
▁вперед	-8163
▁площадки	-8164
▁находиться	-8165
▁дем	-8166
▁озе	-8167
▁сроком	-8168
▁паводка	-8169
▁преддве	-8170
▁расстре	-8171
▁американской	-8172
▁остальных	-8173
▁13-	-8174
▁сколько	-8175
ковник	-8176
▁зафиксировано	-8177
рад	-8178
юри	-8179
▁перенес	-8180
▁западной	-8181
▁краевого	-8182
▁16-	-8183
▁регионы	-8184
▁различные	-8185
▁расчетами	-8186
▁спро	-8187
▁вдвое	-8188
вес	-8189
▁59	-8190
.00,	-8191
▁диалог	-8192
▁одобрил	-8193
▁проиграл	-8194
▁московских	-8195
▁завтра	-8196
▁большое	-8197
▁чемпионом	-8198
глава	-8199
хозяй	-8200
▁рати	-8201
говещен	-8202
▁понизи	-8203
▁пунктах	-8204
▁ази	-8205
▁бокс	-8206
▁кандидата	-8207
▁окончания	-8208
мира	-8209
▁серию	-8210
▁бизнесмена	-8211
▁рано	-8212
убийство	-8213
▁избирательных	-8214
вятся	-8215
▁новоро	-8216
▁пытались	-8217
ура	-8218
хим	-8219
▁1,6	-8220
▁мусуль	-8221
▁алья	-8222
▁убит	-8223
▁симво	-8224
▁получения	-8225
дает	-8226
▁петра	-8227
▁сохранить	-8228
бань	-8229
▁ува	-8230
▁концеп	-8231
▁облига	-8232
▁финансирование	-8233
▁араб	-8234
▁ждут	-8235
▁нако	-8236
▁кудрин	-8237
▁спасти	-8238
▁направля	-8239
▁необходимые	-8240
▁усынов	-8241
▁исключает	-8242
▁неуда	-8243
▁превра	-8244
печат	-8245
▁колон	-8246
▁урожен	-8247
▁например	-8248
▁освобожден	-8249
▁посетить	-8250
рила	-8251
▁брат	-8252
▁детям	-8253
▁норвегии	-8254
▁использования	-8255
:5	-8256
леди	-8257
▁сизо	-8258
▁кабинет	-8259
▁президи	-8260
▁проз	-8261
▁замени	-8262
▁грузовика	-8263
▁заниматься	-8264
▁своими	-8265
дуст	-8266
▁нова	-8267
▁стихии	-8268
-2"	-8269
▁выезд	-8270
ума	-8271
▁рту	-8272
▁глубо	-8273
канчи	-8274
▁общежи	-8275
▁паспорта	-8276
▁результатом	-8277
свя	-8278
▁решений	-8279
▁франция	-8280
▁американских	-8281
ym	-8282
▁улицах	-8283
▁транспортной	-8284
бирь	-8285
▁ужесто	-8286
▁информи	-8287
▁1,7	-8288
▁лучший	-8289
▁театраль	-8290
▁преддверии	-8291
▁землю	-8292
▁тюрьмы	-8293
▁рейтинге	-8294
▁удмур	-8295
▁открытого	-8296
▁корабля	-8297
▁немного	-8298
▁виктория	-8299
▁родителей	-8300
даль	-8301
▁ваз	-8302
▁проник	-8303
▁терактов	-8304
▁метрополитена	-8305
меди	-8306
тельности	-8307
▁обыграла	-8308
мара	-8309
бия	-8310
▁вмф	-8311
▁поступ	-8312
ствию	-8313
▁ерева	-8314
▁гонки	-8315
▁полеты	-8316
логов	-8317
▁сектора	-8318
▁построен	-8319
рома	-8320
▁140	-8321
гидро	-8322
▁зачет	-8323
▁регион	-8324
дне	-8325
ксу	-8326
▁nie	-8327
▁веществ	-8328
▁потребу	-8329
▁советов	-8330
▁станция	-8331
▁требуют	-8332
▁олимпийский	-8333
кара	-8334
ссов	-8335
▁относительно	-8336
▁te	-8337
▁упро	-8338
▁хотел	-8339
комит	-8340
ложения	-8341
▁открывается	-8342
сотруд	-8343
:7	-8344
▁57	-8345
▁заказ	-8346
▁питания	-8347
▁поражения	-8348
▁пога	-8349
▁(495)	-8350
бал	-8351
▁указ	-8352
▁базу	-8353
▁ведут	-8354
▁пожары	-8355
▁молодежи	-8356
оче	-8357
лево	-8358
▁горнолы	-8359
рф	-8360
▁нигерии	-8361
▁общий	-8362
гентство	-8363
▁заканчи	-8364
▁отдел	-8365
▁перешел	-8366
лейбу	-8367
▁кызы	-8368
дум	-8369
▁певи	-8370
▁партне	-8371
▁пожизнен	-8372
3.	-8373
,9%	-8374
▁финансовой	-8375
▁европейской	-8376
тку	-8377
▁обрабо	-8378
▁томи	-8379
▁звезд	-8380
▁позицию	-8381
▁беженцев	-8382
▁лоб	-8383
тивный	-8384
▁добавля	-8385
▁другими	-8386
▁режиссе	-8387
▁общественной	-8388
выми	-8389
▁высказа	-8390
▁гага	-8391
▁казан	-8392
▁исче	-8393
▁планов	-8394
▁легкову	-8395
ровке	-8396
▁затоп	-8397
▁связано	-8398
▁малень	-8399
▁объявили	-8400
▁обвиняемый	-8401
кл	-8402
▁12.00	-8403
▁создана	-8404
▁потерпел	-8405
▁хабаровском	-8406
▁самостоятельно	-8407
▁прыж	-8408
▁непосред	-8409
▁безработи	-8410
▁разрушения	-8411
евой	-8412
летие	-8413
▁боли	-8414
тивным	-8415
▁земле	-8416
▁мемориа	-8417
▁победила	-8418
чают	-8419
▁зону	-8420
▁астро	-8421
▁посетителей	-8422
▁6:3,	-8423
▁черного	-8424
▁nas	-8425
▁проезд	-8426
женность	-8427
▁портале	-8428
▁заболева	-8429
▁началось	-8430
▁18.00	-8431
▁врача	-8432
▁бригады	-8433
▁организаторов	-8434
▁тысяча	-8435
чному	-8436
▁мара	-8437
▁девушки	-8438
▁столицу	-8439
▁благовещен	-8440
▁обстреляли	-8441
моно	-8442
руются	-8443
▁рестав	-8444
▁достигну	-8445
▁личность	-8446
▁красноярского	-8447
▁баку	-8448
▁врач	-8449
ереметьево	-8450
▁подростков	-8451
етах	-8452
благода	-8453
▁сыграть	-8454
▁тбилиси	-8455
▁продукта	-8456
▁состоятся	-8457
▁катастрофы	-8458
▁ливий	-8459
ческими	-8460
▁попытке	-8461
um	-8462
вре	-8463
игры	-8464
▁карьеру	-8465
▁рассмотреть	-8466
шенных	-8467
▁личности	-8468
▁составило	-8469
▁подозревают	-8470
опас	-8471
нисти	-8472
▁самом	-8473
▁ущерба	-8474
▁игроком	-8475
▁фотографии	-8476
▁фла	-8477
▁хло	-8478
▁семьям	-8479
▁спортсмены	-8480
▁финансирования	-8481
tp	-8482
▁анома	-8483
лиган	-8484
▁канады	-8485
▁аргентин	-8486
▁туропера	-8487
▁стен	-8488
▁обамы	-8489
▁рулем	-8490
льф	-8491
▁капитала	-8492
пор	-8493
▁ид	-8494
комму	-8495
▁брен	-8496
▁холдин	-8497
▁федеральный	-8498
▁ими	-8499
▁взяла	-8500
корзины	-8501
▁указан	-8502
▁заблоки	-8503
▁фоторепорта	-8504
▁ада	-8505
збир	-8506
щика	-8507
щики	-8508
новой	-8509
тивно	-8510
▁open	-8511
тивного	-8512
▁водителей	-8513
нта	-8514
нило	-8515
▁розыск	-8516
▁спорту	-8517
совет	-8518
▁проголосовали	-8519
▁сли	-8520
боров	-8521
▁запро	-8522
▁вызван	-8523
▁театре	-8524
▁сотрудни	-8525
дителем	-8526
▁саммит	-8527
▁появятся	-8528
▁направлено	-8529
▁ищет	-8530
▁клубом	-8531
риев	-8532
▁портал	-8533
▁троллейбу	-8534
джан	-8535
мато	-8536
▁туристы	-8537
▁составили	-8538
нор	-8539
▁61	-8540
ерых	-8541
▁родился	-8542
▁азербайджана	-8543
▁oil	-8544
▁проблему	-8545
▁собственности	-8546
▁тяж	-8547
▁алта	-8548
▁серебро	-8549
▁университет	-8550
▁увеличение	-8551
▁михай	-8552
ab	-8553
go	-8554
▁держа	-8555
▁литера	-8556
▁дисквали	-8557
сив	-8558
▁све	-8559
▁покажут	-8560
▁пытался	-8561
▁случаев	-8562
▁геннадий	-8563
▁пресечения	-8564
▁осна	-8565
▁заняли	-8566
▁дат	-8567
▁анто	-8568
▁периода	-8569
▁2006-2015	-8570
▁появиться	-8571
сша	-8572
▁термо	-8573
▁медики	-8574
▁календарь	-8575
▁магазина	-8576
плы	-8577
▁срока	-8578
▁поверх	-8579
▁хабаровск	-8580
▁напи	-8581
▁осла	-8582
▁пошли	-8583
▁южный	-8584
▁раунда	-8585
▁экспеди	-8586
справедли	-8587
▁метал	-8588
▁правя	-8589
▁просьбой	-8590
гона	-8591
тное	-8592
▁идею	-8593
▁такая	-8594
▁отставке	-8595
ениях	-8596
▁ряза	-8597
▁уволь	-8598
▁третья	-8599
▁одержали	-8600
циям	-8601
▁goo	-8602
гал	-8603
даго	-8604
▁дальше	-8605
▁источники	-8606
▁кинофестива	-8607
▁грам	-8608
▁важно	-8609
▁утвержден	-8610
▁европейских	-8611
оте	-8612
вере	-8613
▁руководителей	-8614
каи	-8615
25	-8616
▁насилия	-8617
▁трагедия	-8618
▁готовится	-8619
люд	-8620
▁юр	-8621
▁дню	-8622
иться	-8623
▁польше	-8624
▁увеличилась	-8625
▁заместителем	-8626
науки	-8627
▁частных	-8628
▁количества	-8629
▁одо	-8630
ющиеся	-8631
интерес	-8632
▁набира	-8633
▁европейского	-8634
пно	-8635
▁очаг	-8636
▁игрок	-8637
▁множе	-8638
пис	-8639
▁78	-8640
▁родители	-8641
▁эду	-8642
▁открыт	-8643
злов	-8644
ложить	-8645
губерна	-8646
полицей	-8647
▁белорус	-8648
▁переговорах	-8649
▁68	-8650
переда	-8651
▁жуков	-8652
▁привел	-8653
▁выпуска	-8654
▁момента	-8655
енту	-8656
лосу	-8657
формулы	-8658
▁банкро	-8659
▁предполагает	-8660
образова	-8661
тических	-8662
▁лебедев	-8663
тик	-8664
▁дисп	-8665
▁налогов	-8666
▁демонстран	-8667
▁69	-8668
▁дивизи	-8669
▁пересмо	-8670
▁первенства	-8671
▁(10	-8672
леку	-8673
денко	-8674
▁зрения	-8675
▁вагонов	-8676
▁областях	-8677
▁получении	-8678
цкого	-8679
▁казань	-8680
▁попада	-8681
▁брифинге	-8682
▁украинской	-8683
для	-8684
▁будущее	-8685
▁дефицит	-8686
▁стабили	-8687
▁малы	-8688
▁пересечении	-8689
рты	-8690
▁участки	-8691
▁преодоле	-8692
▁представляет	-8693
▁закрыт	-8694
▁делегации	-8695
▁использование	-8696
▁любов	-8697
▁омской	-8698
▁детский	-8699
ks	-8700
▁кемеров	-8701
▁выступал	-8702
▁результатов	-8703
лк	-8704
чила	-8705
▁лидером	-8706
▁континентальной	-8707
нефте	-8708
▁преследова	-8709
la	-8710
▁",	-8711
ссам	-8712
▁саудов	-8713
▁электричества	-8714
▁биографическая	-8715
зю	-8716
gle	-8717
▁норвеж	-8718
▁посред	-8719
▁тали	-8720
послед	-8721
▁ежеднев	-8722
▁инвестиции	-8723
▁проде	-8724
премьера	-8725
▁мосгорсуд	-8726
жила	-8727
▁последу	-8728
▁crude	-8729
▁полицией	-8730
▁чаще	-8731
▁однов	-8732
▁кабмина	-8733
суди	-8734
▁эдуар	-8735
▁ожидают	-8736
▁украиной	-8737
▁10%	-8738
▁льду	-8739
▁привод	-8740
▁победили	-8741
▁появились	-8742
ap	-8743
-12	-8744
ber	-8745
▁почет	-8746
брнауки	-8747
▁крайне	-8748
▁связанных	-8749
▁курса	-8750
▁непро	-8751
▁снима	-8752
жному	-8753
▁взять	-8754
▁недавно	-8755
▁закуп	-8756
▁выплаты	-8757
▁силовых	-8758
▁достигло	-8759
▁исследования	-8760
▁рекор	-8761
▁заявки	-8762
▁объявлено	-8763
▁пропавших	-8764
▁110	-8765
▁барнау	-8766
▁уменьши	-8767
пил	-8768
▁одино	-8769
▁действительно	-8770
жены	-8771
▁клин	-8772
▁чечни	-8773
▁знамен	-8774
начально	-8775
▁украинские	-8776
зья	-8777
▁всему	-8778
▁уточнен	-8779
af	-8780
▁алтае	-8781
▁гонке	-8782
9,	-8783
:4	-8784
▁запуска	-8785
▁обеспоко	-8786
-24	-8787
▁эбо	-8788
▁ванку	-8789
▁отметив	-8790
лями	-8791
▁vol	-8792
▁16.00	-8793
▁судей	-8794
▁годовщи	-8795
▁коррупции	-8796
обще	-8797
▁боло	-8798
пк	-8799
▁оборон	-8800
▁футбол	-8801
▁новостей	-8802
▁таджикистана	-8803
▁130	-8804
▁прися	-8805
▁пистолета	-8806
▁минобрнауки	-8807
летним	-8808
▁рельсов	-8809
ci	-8810
▁ауди	-8811
▁оправ	-8812
▁точки	-8813
▁скорости	-8814
▁футболиста	-8815
▁пользователей	-8816
уд	-8817
▁судья	-8818
▁американские	-8819
▁гуманитарной	-8820
▁(11	-8821
▁преж	-8822
▁попасть	-8823
▁цир	-8824
вающий	-8825
▁заповед	-8826
▁брюсселе	-8827
▁недвижимость	-8828
▁соответствующий	-8829
шком	-8830
▁0,5	-8831
▁запо	-8832
▁долга	-8833
▁мороза	-8834
▁москвичей	-8835
стон	-8836
выбор	-8837
▁круга	-8838
мил	-8839
рие	-8840
рик	-8841
▁мок	-8842
▁партию	-8843
▁реабили	-8844
▁венесуэлы	-8845
▁google	-8846
▁работали	-8847
▁компози	-8848
▁источника	-8849
▁транспортных	-8850
ровых	-8851
▁убиты	-8852
▁фигур	-8853
еву	-8854
▁видит	-8855
▁любой	-8856
▁серьезные	-8857
▁международные	-8858
▁уто	-8859
▁вылета	-8860
▁нижнем	-8861
▁путеше	-8862
▁каждого	-8863
▁завоевали	-8864
▁пассажирский	-8865
педо	-8866
▁волон	-8867
▁вблизи	-8868
▁карелии	-8869
▁переписи	-8870
▁радиа	-8871
▁квартиру	-8872
вата	-8873
▁эква	-8874
▁отель	-8875
▁миссии	-8876
▁стоимости	-8877
▁10.00	-8878
▁задержи	-8879
сипе	-8880
▁нба	-8881
океан	-8882
▁медиа	-8883
▁принимают	-8884
▁готовности	-8885
ami	-8886
▁перу	-8887
▁гектара	-8888
▁привлечь	-8889
▁тульской	-8890
▁105	-8891
▁роз	-8892
▁нена	-8893
▁вспых	-8894
▁свето	-8895
▁показателем	-8896
▁правительством	-8897
roup	-8898
▁вот	-8899
▁6:4,	-8900
▁говорит	-8901
▁сократить	-8902
▁председателем	-8903
▁входят	-8904
▁корпора	-8905
▁расходов	-8906
▁направлен	-8907
▁единственный	-8908
▁рух	-8909
▁допро	-8910
▁стамбу	-8911
▁актуаль	-8912
▁занимал	-8913
▁саммите	-8914
▁протесту	-8915
▁фас	-8916
▁выехали	-8917
садо	-8918
▁дали	-8919
▁кабин	-8920
▁деревян	-8921
▁оперативного	-8922
рового	-8923
▁досто	-8924
▁солдат	-8925
▁ленинград	-8926
▁поддержал	-8927
нано	-8928
корей	-8929
,4%	-8930
рены	-8931
▁наря	-8932
▁омске	-8933
▁привести	-8934
▁5-	-8935
▁льда	-8936
▁благоустрой	-8937
▁замыка	-8938
▁камчатке	-8939
▁миронов	-8940
▁николая	-8941
▁поддерживает	-8942
▁студенты	-8943
думы	-8944
▁реформы	-8945
▁качества	-8946
▁спорткомп	-8947
▁мали	-8948
ментом	-8949
▁скончались	-8950
▁доля	-8951
▁задержания	-8952
▁изменений	-8953
хай	-8954
ляции	-8955
▁чува	-8956
▁экза	-8957
▁семен	-8958
▁автобусов	-8959
▁волгоградской	-8960
зму	-8961
▁упала	-8962
▁настав	-8963
▁электри	-8964
▁долг	-8965
▁рассе	-8966
▁изнаси	-8967
▁рабочей	-8968
-210	-8969
льному	-8970
сколько	-8971
финанси	-8972
сора	-8973
▁24-	-8974
▁круглосу	-8975
▁стрельбу	-8976
▁располагает	-8977
бах	-8978
куси	-8979
▁нара	-8980
▁андреев	-8981
▁марга	-8982
▁попросил	-8983
▁развитии	-8984
▁аварийно	-8985
▁анастасия	-8986
-24,	-8987
▁пас	-8988
▁внешне	-8989
▁компьют	-8990
▁инфляции	-8991
▁химоружи	-8992
▁прекратить	-8993
президента	-8994
▁эвакуации	-8995
▁отравления	-8996
дорови	-8997
▁ислам	-8998
▁ослож	-8999
▁украинский	-9000
ts	-9001
шева	-9002
▁дату	-9003
▁квалифика	-9004
льская	-9005
▁воспита	-9006
▁экспери	-9007
▁закрылись	-9008
▁узбекистана	-9009
▁правительству	-9010
▁домашнем	-9011
стр	-9012
торо	-9013
▁лыж	-9014
▁словакии	-9015
▁подозритель	-9016
▁клубе	-9017
▁складе	-9018
▁выступил	-9019
▁пик	-9020
▁атэс	-9021
▁50%	-9022
▁акцион	-9023
▁мирных	-9024
▁экск	-9025
▁серьезно	-9026
стую	-9027
▁20%	-9028
альти	-9029
мансий	-9030
▁ходор	-9031
▁постановление	-9032
будет	-9033
▁финиши	-9034
▁осталось	-9035
▁скрылись	-9036
▁сн	-9037
нении	-9038
ляются	-9039
▁откроет	-9040
стут	-9041
▁23-	-9042
▁приу	-9043
▁развивать	-9044
▁отка	-9045
▁научно	-9046
▁месторо	-9047
▁заключен	-9048
▁молодежной	-9049
города	-9050
тировать	-9051
▁профила	-9052
▁появился	-9053
▁люб	-9054
▁солн	-9055
▁могла	-9056
▁форме	-9057
▁меркель	-9058
водитель	-9059
▁аукцион	-9060
▁субъектов	-9061
маш	-9062
бами	-9063
▁захо	-9064
▁микрорай	-9065
▁пенальти	-9066
чине	-9067
очеред	-9068
▁армия	-9069
▁созданию	-9070
▁усиление	-9071
▁(12	-9072
▁полно	-9073
▁выйдет	-9074
▁беспорядки	-9075
▁локализова	-9076
▁компенсации	-9077
▁многокварти	-9078
смер	-9079
тория	-9080
▁отря	-9081
▁василий	-9082
▁разбира	-9083
▁велосипе	-9084
▁исполнения	-9085
сай	-9086
имен	-9087
▁поднялся	-9088
▁ай	-9089
бель	-9090
▁исчез	-9091
▁связей	-9092
▁товаров	-9093
▁фракции	-9094
▁торгового	-9095
буд	-9096
дера	-9097
▁самодель	-9098
▁хро	-9099
▁чечне	-9100
▁высшего	-9101
ави	-9102
ними	-9103
▁ракетка	-9104
▁придется	-9105
▁лично	-9106
▁заболевания	-9107
тости	-9108
▁причем	-9109
овыми	-9110
направ	-9111
▁кредитов	-9112
▁боеприпасов	-9113
ману	-9114
▁клубов	-9115
▁конько	-9116
▁поклон	-9117
▁избежать	-9118
▁стоимостью	-9119
▁четвертьфинал	-9120
чре	-9121
▁17.00	-9122
▁сильнее	-9123
▁существует	-9124
▁дов	-9125
левой	-9126
товой	-9127
▁женеве	-9128
▁торговых	-9129
▁орг	-9130
▁весной	-9131
эп	-9132
▁древ	-9133
жность	-9134
▁боевых	-9135
▁следующего	-9136
▁чтении	-9137
▁очереди	-9138
▁изнасилова	-9139
▁ht	-9140
стной	-9141
▁купа	-9142
▁пришел	-9143
▁нефтепроду	-9144
▁специализи	-9145
▁богдановский	-9146
▁перевернулся	-9147
▁поде	-9148
точный	-9149
▁библи	-9150
террори	-9151
▁девочку	-9152
▁хищении	-9153
▁вернется	-9154
▁русского	-9155
стят	-9156
▁ким	-9157
▁упра	-9158
тического	-9159
▁оппозицион	-9160
▁откло	-9161
▁продлится	-9162
мк	-9163
интересова	-9164
▁помещений	-9165
рной	-9166
спри	-9167
▁2002	-9168
коммер	-9169
▁доходы	-9170
▁решением	-9171
▁исследований	-9172
влека	-9173
▁обращения	-9174
▁фестивале	-9175
▁белоруссия	-9176
▁краснодаре	-9177
▁эксплуатации	-9178
0,	-9179
press	-9180
▁багда	-9181
▁затра	-9182
▁корте	-9183
▁сработа	-9184
▁стадион	-9185
▁ресурсов	-9186
▁столичном	-9187
▁победителя	-9188
▁установленный	-9189
▁апел	-9190
▁вьет	-9191
▁докла	-9192
▁малай	-9193
ческому	-9194
▁обращение	-9195
▁открылись	-9196
▁85	-9197
▁спри	-9198
▁ножом	-9199
техники	-9200
▁комсомо	-9201
тке	-9202
▁атр	-9203
▁оптими	-9204
▁автомаши	-9205
▁возраста	-9206
▁воробьев	-9207
▁взорвался	-9208
▁мероприятии	-9209
парла	-9210
▁верховной	-9211
▁афины	-9212
▁доход	-9213
бых	-9214
мирал	-9215
▁блок	-9216
▁фотоленте	-9217
▁3-	-9218
гера	-9219
▁педаго	-9220
▁подопе	-9221
▁рейтинга	-9222
чко	-9223
тятся	-9224
▁книги	-9225
▁изобра	-9226
▁историю	-9227
▁действие	-9228
▁признался	-9229
▁чай	-9230
▁ответил	-9231
енные	-9232
▁алжи	-9233
▁зави	-9234
▁рабочие	-9235
▁потребителей	-9236
бос	-9237
▁двум	-9238
▁учиты	-9239
▁третьим	-9240
скорой	-9241
▁служб	-9242
▁искрен	-9243
▁одержала	-9244
▁гендиректор	-9245
▁предъявлено	-9246
▁федеральном	-9247
стойчи	-9248
▁можем	-9249
▁говорят	-9250
▁распоряжение	-9251
кино	-9252
▁жан	-9253
▁кир	-9254
чений	-9255
▁зала	-9256
▁проща	-9257
▁канала	-9258
▁надеюсь	-9259
▁разреши	-9260
▁оборудование	-9261
▁оценке	-9262
▁расчетов	-9263
▁подростка	-9264
▁синьхуа	-9265
▁массовые	-9266
каев	-9267
▁лесо	-9268
▁окон	-9269
▁газом	-9270
▁горня	-9271
▁детса	-9272
▁заявку	-9273
гова	-9274
жется	-9275
▁жири	-9276
▁перехода	-9277
▁алкогольного	-9278
валов	-9279
▁раду	-9280
▁поблагода	-9281
ктики	-9282
▁бала	-9283
▁неустанов	-9284
лени	-9285
▁полугодии	-9286
▁физкульту	-9287
▁66	-9288
емая	-9289
▁венг	-9290
▁лауреа	-9291
▁новому	-9292
▁уточнила	-9293
пл	-9294
баш	-9295
▁ще	-9296
тиву	-9297
▁17-	-9298
▁мечет	-9299
▁пожела	-9300
▁индексы	-9301
▁попытку	-9302
теле	-9303
▁юбиле	-9304
▁атлети	-9305
сколково	-9306
▁живу	-9307
▁часы	-9308
▁магазин	-9309
▁пропавшего	-9310
▁реанимации	-9311
▁друзья	-9312
▁подвод	-9313
▁костром	-9314
едет	-9315
▁десятков	-9316
▁вслед	-9317
будсмен	-9318
торпедо	-9319
▁австрии	-9320
▁ведущих	-9321
▁морозов	-9322
▁водой	-9323
▁раунде	-9324
▁страна	-9325
▁крушение	-9326
▁студента	-9327
▁городских	-9328
▁1:0	-9329
▁сайта	-9330
▁женской	-9331
▁утвердил	-9332
▁защитника	-9333
▁0,3	-9334
ливер	-9335
▁пакистана	-9336
▁рассматривает	-9337
фран	-9338
▁центров	-9339
▁полуо	-9340
▁объект	-9341
▁характера	-9342
▁людям	-9343
▁пункт	-9344
▁автобусе	-9345
all	-9346
out	-9347
▁2-	-9348
лятся	-9349
барсело	-9350
▁наказания	-9351
▁технологии	-9352
▁67	-9353
чается	-9354
▁расписа	-9355
▁болгарии	-9356
▁сибирского	-9357
реал	-9358
оволь	-9359
▁дне	-9360
группы	-9361
▁амнисти	-9362
▁смотреть	-9363
▁задержанного	-9364
▁толчки	-9365
▁интегра	-9366
▁комментарии	-9367
▁реку	-9368
тической	-9369
западного	-9370
cc	-9371
▁русский	-9372
▁обсуждения	-9373
cie	-9374
▁крити	-9375
▁членами	-9376
▁действовать	-9377
▁четвертьфинале	-9378
▁занятия	-9379
▁поврежден	-9380
тиру	-9381
▁корпус	-9382
▁зампред	-9383
▁подросток	-9384
▁одновременно	-9385
ладель	-9386
▁крови	-9387
▁главных	-9388
кону	-9389
тери	-9390
▁насиль	-9391
▁оказания	-9392
льп	-9393
▁7:6	-9394
▁руки	-9395
портер	-9396
▁доклад	-9397
▁составить	-9398
▁населенного	-9399
▁сумме	-9400
▁корабль	-9401
шов	-9402
▁наш	-9403
▁взлет	-9404
▁школу	-9405
▁непода	-9406
15	-9407
▁стражей	-9408
▁воздушного	-9409
▁al	-9410
▁www	-9411
атлети	-9412
▁645-65	-9413
▁станда	-9414
▁увидеть	-9415
▁ria	-9416
▁рпц	-9417
гового	-9418
ризбир	-9419
▁америка	-9420
▁принятия	-9421
▁установлена	-9422
▁ара	-9423
▁отец	-9424
▁group	-9425
▁стадии	-9426
▁защиту	-9427
▁священ	-9428
▁награды	-9429
▁заявляют	-9430
▁материале	-9431
▁участвовали	-9432
▁представлены	-9433
▁аренды	-9434
▁поединке	-9435
▁хабаровске	-9436
▁типа	-9437
▁аренду	-9438
женности	-9439
ствования	-9440
▁журналист	-9441
▁база	-9442
▁дании	-9443
▁ставки	-9444
▁вернулись	-9445
▁обязательства	-9446
aj	-9447
-2018	-9448
▁потерял	-9449
▁средний	-9450
щает	-9451
▁(200	-9452
сибирь	-9453
ленными	-9454
▁проезда	-9455
▁продоволь	-9456
op	-9457
▁обл	-9458
▁судьба	-9459
▁министром	-9460
▁прокурора	-9461
▁знак	-9462
▁троих	-9463
▁опозна	-9464
▁последова	-9465
▁дворкович	-9466
▁шпи	-9467
ционали	-9468
▁институт	-9469
▁крушении	-9470
ft	-9471
▁цар	-9472
тником	-9473
▁курорт	-9474
▁северном	-9475
▁проспекта	-9476
▁соблюда	-9477
▁долгосро	-9478
аван	-9479
av	-9480
▁09	-9481
бава	-9482
▁автора	-9483
западный	-9484
▁передать	-9485
▁проверить	-9486
▁уши	-9487
▁отказы	-9488
▁вокзала	-9489
▁неподалеку	-9490
▁центральном	-9491
▁соли	-9492
▁онищенко	-9493
▁теннису	-9494
▁астрахани	-9495
▁минэнерго	-9496
▁генпрокуратура	-9497
лода	-9498
▁фар	-9499
▁нано	-9500
▁анонс	-9501
▁террористи	-9502
▁смогла	-9503
▁предъяви	-9504
▁наблюдателей	-9505
ne	-9506
делы	-9507
рост	-9508
стить	-9509
льских	-9510
▁дизай	-9511
▁задержанный	-9512
гос	-9513
▁le	-9514
▁ур	-9515
▁досрочно	-9516
▁помещении	-9517
▁сторонников	-9518
кол	-9519
зили	-9520
▁1,8	-9521
совета	-9522
▁крыши	-9523
▁продолжить	-9524
▁увеличился	-9525
куда	-9526
бело	-9527
▁реаги	-9528
▁хусну	-9529
▁приста	-9530
лую	-9531
▁цене	-9532
▁обсудил	-9533
▁сотрудникам	-9534
льд	-9535
рено	-9536
стаи	-9537
▁алена	-9538
▁выбира	-9539
▁аргентины	-9540
▁окружающей	-9541
▁россиянина	-9542
▁метеорологи	-9543
▁сфер	-9544
газель	-9545
комменти	-9546
▁обещают	-9547
▁органами	-9548
▁мюнх	-9549
▁необы	-9550
▁самая	-9551
▁марина	-9552
▁сыграли	-9553
▁оказалось	-9554
▁разнонаправ	-9555
▁международным	-9556
▁выделено	-9557
▁уступила	-9558
▁присоедин	-9559
▁рассчитанная	-9560
тную	-9561
▁боя	-9562
▁фмс	-9563
андже	-9564
▁охот	-9565
▁стани	-9566
▁берегу	-9567
▁энергобло	-9568
▁району	-9569
▁внешней	-9570
▁санитар	-9571
ился	-9572
мене	-9573
▁блока	-9574
▁максиму	-9575
▁ханты	-9576
▁заключенных	-9577
▁прокомменти	-9578
▁оцеп	-9579
▁угрожает	-9580
ростов	-9581
▁мороз	-9582
▁гостиницы	-9583
▁воспользова	-9584
▁оперативники	-9585
эл	-9586
▁19-	-9587
монстри	-9588
▁вологод	-9589
▁потребовал	-9590
36	-9591
стиан	-9592
▁игрока	-9593
▁перекре	-9594
▁выиграть	-9595
▁жо	-9596
▁яцен	-9597
нистов	-9598
▁привол	-9599
▁фунтов	-9600
▁московские	-9601
▁провела	-9602
▁переходе	-9603
-21	-9604
▁выска	-9605
▁двоих	-9606
▁моменты	-9607
▁януковича	-9608
щина	-9609
▁золота	-9610
▁средне	-9611
▁инженер	-9612
▁потребитель	-9613
нк	-9614
рика	-9615
▁испытания	-9616
▁петербурж	-9617
▁соответствующее	-9618
мета	-9619
▁0,45	-9620
▁музее	-9621
▁неожида	-9622
▁уточнив	-9623
▁будущего	-9624
▁отказаться	-9625
слава	-9626
▁употреб	-9627
▁контакты	-9628
▁подмосковного	-9629
,2%	-9630
лат	-9631
▁08	-9632
▁20.00	-9633
▁помог	-9634
▁непого	-9635
гана	-9636
меня	-9637
▁запланирован	-9638
▁продемонстри	-9639
▁электропереда	-9640
▁семье	-9641
тельными	-9642
▁пропали	-9643
▁планирова	-9644
▁калининград	-9645
▁компанией	-9646
▁отключения	-9647
▁вратарь	-9648
▁соперником	-9649
ционным	-9650
▁пригороде	-9651
▁снижением	-9652
▁официального	-9653
▁единоро	-9654
▁хозяева	-9655
▁специально	-9656
летели	-9657
▁берлин	-9658
▁стороне	-9659
▁постоянно	-9660
▁эвакуация	-9661
hone	-9662
вина	-9663
тыми	-9664
▁зву	-9665
▁пиро	-9666
ционном	-9667
▁расположенного	-9668
дали	-9669
нейро	-9670
▁2003	-9671
▁лабора	-9672
▁угроза	-9673
▁редакции	-9674
гают	-9675
согла	-9676
участ	-9677
московская	-9678
▁гражданам	-9679
▁следственное	-9680
▁sw	-9681
▁армя	-9682
▁шансы	-9683
▁портфе	-9684
▁растет	-9685
хождения	-9686
▁хакасии	-9687
▁кабинета	-9688
▁процессу	-9689
домодедово	-9690
▁действует	-9691
▁убы	-9692
▁зачете	-9693
▁строчку	-9694
▁содержания	-9695
▁давы	-9696
▁лагере	-9697
▁припар	-9698
▁разрешения	-9699
шах	-9700
▁82	-9701
▁дата	-9702
▁стражу	-9703
рер	-9704
▁весен	-9705
▁удмуртии	-9706
управ	-9707
ющейся	-9708
▁голкипер	-9709
▁процесса	-9710
нести	-9711
▁поня	-9712
енного	-9713
транса	-9714
льности	-9715
▁татарстана	-9716
▁конституции	-9717
▁саль	-9718
▁совфе	-9719
▁обезвре	-9720
▁попытки	-9721
▁350	-9722
▁исте	-9723
▁игроки	-9724
▁случаи	-9725
▁столби	-9726
▁преподава	-9727
товых	-9728
▁надежда	-9729
▁здоровью	-9730
▁отставки	-9731
мети	-9732
ционера	-9733
▁народа	-9734
▁наса	-9735
▁специального	-9736
▁баскетболисты	-9737
//	-9738
зме	-9739
▁кого	-9740
▁крупные	-9741
▁645-65-24,	-9742
▁жительница	-9743
8%	-9744
▁нур	-9745
▁фаль	-9746
▁стары	-9747
▁столичный	-9748
▁зая	-9749
▁барак	-9750
▁предоставить	-9751
душ	-9752
▁красного	-9753
▁отличился	-9754
▁обстановка	-9755
▁строительных	-9756
китай	-9757
▁побы	-9758
▁найдено	-9759
▁сделали	-9760
▁международная	-9761
его	-9762
▁проходил	-9763
▁позволяет	-9764
▁северомор	-9765
▁красноярска	-9766
баев	-9767
▁изви	-9768
▁объявила	-9769
▁биатлонист	-9770
▁79	-9771
▁бабу	-9772
тельстве	-9773
▁отпусти	-9774
▁деревьев	-9775
кубань	-9776
постав	-9777
▁госте	-9778
▁легковых	-9779
▁зарубежных	-9780
://	-9781
▁дв	-9782
▁бага	-9783
▁вступил	-9784
▁дорожно	-9785
▁кладбище	-9786
как	-9787
дана	-9788
ровая	-9789
▁явка	-9790
▁полтора	-9791
▁кори	-9792
▁стиму	-9793
▁планет	-9794
нической	-9795
▁периодом	-9796
▁томского	-9797
▁памятника	-9798
▁прогнозам	-9799
▁мла	-9800
дентов	-9801
петров	-9802
сет	-9803
ложение	-9804
▁потенциа	-9805
тору	-9806
▁библиоте	-9807
▁22-	-9808
▁запу	-9809
линской	-9810
▁снегопада	-9811
▁возникновения	-9812
▁высокой	-9813
▁неожидан	-9814
▁00	-9815
▁сты	-9816
▁печа	-9817
▁считаю	-9818
▁иркутск	-9819
▁независимости	-9820
40	-9821
шом	-9822
▁идти	-9823
▁старо	-9824
жанейро	-9825
незакон	-9826
▁издели	-9827
▁оценки	-9828
▁донецке	-9829
▁алкоголя	-9830
▁коллегии	-9831
▁завершили	-9832
инспек	-9833
▁артем	-9834
▁дешеве	-9835
▁медалей	-9836
▁нынешнем	-9837
ул	-9838
▁вспы	-9839
кистан	-9840
ционную	-9841
▁границу	-9842
▁кириленко	-9843
▁50-	-9844
▁эми	-9845
овому	-9846
элект	-9847
гию	-9848
меся	-9849
▁дай	-9850
▁составлял	-9851
▁загряз	-9852
▁митинга	-9853
cedes	-9854
▁http	-9855
▁дета	-9856
▁войне	-9857
жат	-9858
ртер	-9859
▁зависи	-9860
▁различной	-9861
▁источников	-9862
▁мей	-9863
пресс	-9864
▁трубо	-9865
▁билетов	-9866
▁еврозоны	-9867
▁завершил	-9868
▁торговой	-9869
▁обеспечение	-9870
жин	-9871
▁азиат	-9872
▁линию	-9873
автомоби	-9874
▁показала	-9875
▁преступников	-9876
▁руководители	-9877
таж	-9878
▁18-	-9879
▁оргкомит	-9880
▁автобусом	-9881
▁ек	-9882
▁нему	-9883
▁грозы	-9884
▁посетил	-9885
▁проверит	-9886
▁бах	-9887
▁выступать	-9888
7%	-9889
▁ол	-9890
▁курсам	-9891
▁нефтяной	-9892
▁арх	-9893
▁балан	-9894
▁земля	-9895
▁неблаго	-9896
▁задержании	-9897
▁гола	-9898
▁станцию	-9899
тоне	-9900
терна	-9901
▁убор	-9902
▁пределах	-9903
▁дани	-9904
▁солов	-9905
▁легкой	-9906
▁экстра	-9907
▁подготовка	-9908
▁французский	-9909
▁оружием	-9910
▁привело	-9911
▁нефтяную	-9912
▁собрались	-9913
мю	-9914
▁иску	-9915
▁половины	-9916
▁восстановить	-9917
ers	-9918
тино	-9919
▁зафиксированы	-9920
▁парламентских	-9921
крепи	-9922
▁другу	-9923
▁схода	-9924
▁запасы	-9925
▁значения	-9926
▁получать	-9927
▁бюджетных	-9928
▁агре	-9929
▁штра	-9930
▁депози	-9931
▁соедин	-9932
▁большую	-9933
▁конгресс	-9934
▁отказались	-9935
▁поддержать	-9936
▁российскими	-9937
6%	-9938
▁билеты	-9939
▁тысячу	-9940
ok	-9941
▁мгу	-9942
▁отбы	-9943
▁детской	-9944
▁путевку	-9945
▁станций	-9946
▁присвоен	-9947
4%	-9948
жек	-9949
▁мексике	-9950
▁тушении	-9951
▁афганской	-9952
22	-9953
▁наход	-9954
▁судить	-9955
▁стартовал	-9956
▁производству	-9957
▁наша	-9958
▁раунд	-9959
▁космодро	-9960
ms	-9961
соборон	-9962
▁призер	-9963
▁статьям	-9964
▁кузнецов	-9965
▁британский	-9966
▁обеспечению	-9967
▁рассмотрения	-9968
юр	-9969
булга	-9970
стера	-9971
▁белого	-9972
▁повстан	-9973
▁транспо	-9974
▁мусульман	-9975
▁подземных	-9976
русс	-9977
чина	-9978
▁tra	-9979
▁бого	-9980
▁греция	-9981
▁порывы	-9982
▁владимиром	-9983
▁як	-9984
вича	-9985
▁смы	-9986
▁павиль	-9987
газпрома	-9988
▁рассказы	-9989
▁гей	-9990
гражда	-9991
▁вывез	-9992
ссамбле	-9993
▁металли	-9994
▁обнарод	-9995
▁отменить	-9996
▁политика	-9997
▁журналисты	-9998
▁организацию	-9999
▁кады	-10000
▁реклам	-10001
▁сигнал	-10002
▁вэ	-10003
▁пы	-10004
▁столба	-10005
▁сообщению	-10006
▁считается	-10007
▁ходу	-10008
торами	-10009
▁заливе	-10010
▁ислами	-10011
▁участках	-10012
▁побережье	-10013
▁временного	-10014
▁ски	-10015
талия	-10016
▁фирмы	-10017
работать	-10018
▁мексики	-10019
▁минувшие	-10020
▁коммуника	-10021
цки	-10022
стал	-10023
▁испы	-10024
▁леги	-10025
▁насле	-10026
▁кадров	-10027
▁призыв	-10028
▁федера	-10029
объ	-10030
▁лоша	-10031
▁поездки	-10032
▁снизились	-10033
▁формирования	-10034
▁лч	-10035
барди	-10036
▁рафа	-10037
▁(0,55	-10038
болов	-10039
▁шайбы	-10040
▁росста	-10041
▁культуре	-10042
▁19.00	-10043
▁драки	-10044
▁деревне	-10045
▁кампании	-10046
▁связанные	-10047
▁сирию	-10048
▁счета	-10049
▁сообщали	-10050
▁превысило	-10051
▁дро	-10052
▁вмеша	-10053
▁субъекта	-10054
▁реконструкцию	-10055
▁ави	-10056
▁иор	-10057
▁выписа	-10058
▁генера	-10059
▁единый	-10060
руса	-10061
▁ижев	-10062
найтед	-10063
▁назем	-10064
▁ограб	-10065
▁попала	-10066
▁совете	-10067
▁mercedes	-10068
ina	-10069
мок	-10070
сян	-10071
▁буты	-10072
роснано	-10073
▁банкрот	-10074
▁исправи	-10075
▁полта	-10076
▁дольщи	-10077
▁репортер	-10078
▁стрельбы	-10079
▁режиссера	-10080
дию	-10081
▁us	-10082
▁ленина	-10083
▁наркотики	-10084
iot	-10085
▁арт	-10086
▁уильямс	-10087
▁ока	-10088
восток	-10089
▁покон	-10090
▁посте	-10091
▁садов	-10092
▁подеше	-10093
▁взрывы	-10094
▁дворца	-10095
▁рынках	-10096
▁властям	-10097
▁субботы	-10098
▁уступили	-10099
▁федеральному	-10100
▁гп	-10101
▁даст	-10102
▁хочу	-10103
▁объема	-10104
▁геологи	-10105
▁правовой	-10106
▁воздушных	-10107
▁проиграла	-10108
▁занимается	-10109
▁ввод	-10110
▁родину	-10111
▁клиентов	-10112
▁снегопад	-10113
▁аэро	-10114
жено	-10115
▁окра	-10116
▁сетах	-10117
▁участниками	-10118
▁максимальная	-10119
▁запланировано	-10120
▁эл	-10121
манов	-10122
▁2001	-10123
▁волог	-10124
▁психи	-10125
▁поднима	-10126
лыми	-10127
▁опрос	-10128
▁триум	-10129
▁дослед	-10130
▁америки	-10131
▁заинтересова	-10132
▁0,0	-10133
▁баз	-10134
▁условно	-10135
▁арестованы	-10136
red	-10137
милли	-10138
▁мэрия	-10139
▁тонне	-10140
▁зимних	-10141
▁диалога	-10142
▁проверяет	-10143
▁знаменский	-10144
▁перело	-10145
▁участии	-10146
▁действующий	-10147
▁альян	-10148
▁жильем	-10149
▁напали	-10150
▁атомной	-10151
▁национали	-10152
▁голосование	-10153
▁шар	-10154
▁голу	-10155
лизова	-10156
▁маркин	-10157
▁людмила	-10158
▁операций	-10159
▁приблизи	-10160
▁показателя	-10161
▁туров	-10162
▁встреч	-10163
▁донбассе	-10164
дона	-10165
▁гонкон	-10166
▁решать	-10167
▁назвали	-10168
▁оказать	-10169
▁сун	-10170
▁сана	-10171
▁патри	-10172
▁славян	-10173
▁проспекту	-10174
▁собеседника	-10175
▁реконструкция	-10176
ena	-10177
issan	-10178
етчер	-10179
▁запи	-10180
▁марк	-10181
▁ювели	-10182
▁затону	-10183
▁качество	-10184
▁нынешнего	-10185
▁политической	-10186
ьи	-10187
▁внед	-10188
▁марии	-10189
▁премию	-10190
▁применя	-10191
▁поступил	-10192
▁олега	-10193
▁приходится	-10194
▁валерия	-10195
▁конкурсе	-10196
ели	-10197
риф	-10198
▁булли	-10199
▁пролив	-10200
▁данного	-10201
▁примени	-10202
▁германия	-10203
▁наследия	-10204
▁хуснуллин	-10205
▁конференция	-10206
▁прогнозируют	-10207
▁фру	-10208
▁минздра	-10209
▁цы	-10210
▁бесе	-10211
▁polsk	-10212
▁школа	-10213
▁нашего	-10214
▁луганской	-10215
кхл	-10216
влек	-10217
йдут	-10218
▁ярмар	-10219
▁радиостанции	-10220
мона	-10221
▁шахма	-10222
▁местный	-10223
▁9-	-10224
вании	-10225
▁утили	-10226
▁секунд	-10227
▁росавиа	-10228
▁омбудсмен	-10229
▁мг	-10230
▁бук	-10231
▁иса	-10232
шал	-10233
▁фн	-10234
кине	-10235
после	-10236
ниться	-10237
▁конец	-10238
▁настаи	-10239
▁насчиты	-10240
▁архангель	-10241
▁космического	-10242
▁sky	-10243
▁выку	-10244
▁навига	-10245
▁освободить	-10246
анта	-10247
▁предвыбор	-10248
▁30%	-10249
▁пасе	-10250
▁топливо	-10251
▁водоснабжения	-10252
була	-10253
феропо	-10254
бое	-10255
фей	-10256
▁6-	-10257
ллина	-10258
▁аналогичным	-10259
50-19	-10260
▁декла	-10261
▁опаса	-10262
▁падение	-10263
▁полетов	-10264
▁выясняют	-10265
▁слушания	-10266
▁помещение	-10267
ah	-10268
▁(14	-10269
форме	-10270
▁теракте	-10271
▁уточнили	-10272
▁предложен	-10273
▁милиционеры	-10274
тв	-10275
право	-10276
▁въезд	-10277
▁продаж	-10278
▁продать	-10279
▁отменены	-10280
▁делегация	-10281
▁петербургу	-10282
,1%	-10283
имбл	-10284
щается	-10285
▁киноте	-10286
▁показы	-10287
▁уволен	-10288
▁наиболь	-10289
▁харьков	-10290
▁напротив	-10291
нета	-10292
стар	-10293
▁мерт	-10294
▁оборот	-10295
аф	-10296
▁6:2,	-10297
▁ртутного	-10298
деб	-10299
вела	-10300
▁вдо	-10301
▁церков	-10302
▁вулкана	-10303
▁расположенном	-10304
doc	-10305
▁100%	-10306
▁сейсмо	-10307
▁васильев	-10308
li	-10309
▁судо	-10310
▁храм	-10311
▁яков	-10312
▁регла	-10313
▁спаси	-10314
▁храма	-10315
▁трудно	-10316
▁фильмов	-10317
▁иностранцев	-10318
▁эли	-10319
▁гаити	-10320
ливерпу	-10321
▁вопроса	-10322
▁гид	-10323
ходили	-10324
ченной	-10325
▁сексу	-10326
ковский	-10327
▁лужков	-10328
▁установи	-10329
▁отсутствие	-10330
шии	-10331
▁уимбл	-10332
▁полгода	-10333
леть	-10334
▁нанесли	-10335
представи	-10336
▁праздника	-10337
гко	-10338
▁одкб	-10339
▁наград	-10340
▁стрельбе	-10341
голь	-10342
пети	-10343
таки	-10344
▁павлю	-10345
▁актриса	-10346
▁выпуске	-10347
▁проспект	-10348
▁тренирово	-10349
3%	-10350
рно	-10351
▁джор	-10352
▁созна	-10353
▁частном	-10354
▁минувшую	-10355
▁продукты	-10356
▁информацией	-10357
▁маго	-10358
▁равно	-10359
▁пилота	-10360
▁причину	-10361
▁ожидании	-10362
▁кемеровской	-10363
▁североморскую	-10364
▁соответствующие	-10365
17	-10366
▁тувы	-10367
▁власть	-10368
▁молодые	-10369
▁ведомств	-10370
▁ставрополье	-10371
▁тс	-10372
жена	-10373
▁пары	-10374
▁отмены	-10375
▁сделки	-10376
▁сексуаль	-10377
▁отдельных	-10378
▁экономических	-10379
сных	-10380
щением	-10381
▁прояв	-10382
▁неосторожности	-10383
утся	-10384
▁той	-10385
нутся	-10386
▁637-	-10387
потреб	-10388
▁ar	-10389
▁взгля	-10390
▁отеля	-10391
▁обвиняется	-10392
-18	-10393
▁26-	-10394
енной	-10395
▁белый	-10396
▁выста	-10397
▁вечера	-10398
▁районы	-10399
▁завершения	-10400
▁28-	-10401
▁гэс	-10402
▁хай	-10403
▁отстран	-10404
▁массовой	-10405
▁приамурье	-10406
ord	-10407
фун	-10408
▁21-	-10409
коман	-10410
овали	-10411
▁легкую	-10412
▁основная	-10413
▁уточненным	-10414
шают	-10415
▁тка	-10416
▁крупного	-10417
▁политику	-10418
▁агентством	-10419
мит	-10420
▁bm	-10421
▁слы	-10422
▁21.00	-10423
▁разобра	-10424
начальника	-10425
ел	-10426
▁эм	-10427
▁160	-10428
дился	-10429
▁уйти	-10430
▁разря	-10431
▁росте	-10432
▁шувалов	-10433
▁взрослых	-10434
сур	-10435
мате	-10436
▁прямо	-10437
▁рассле	-10438
14	-10439
9%	-10440
▁вин	-10441
мерть	-10442
▁линий	-10443
▁аварию	-10444
▁купить	-10445
▁мнения	-10446
ань	-10447
▁каз	-10448
▁безу	-10449
▁отмене	-10450
▁экскур	-10451
▁деревни	-10452
▁термина	-10453
▁продолжать	-10454
▁рад	-10455
ющийся	-10456
▁талан	-10457
▁законом	-10458
▁президенте	-10459
хэм	-10460
▁алма	-10461
▁попол	-10462
▁карьере	-10463
▁лесного	-10464
▁легендар	-10465
▁насмерть	-10466
▁четвертого	-10467
▁предприниматель	-10468
▁игоря	-10469
▁637-50-19	-10470
▁реализацию	-10471
▁эш	-10472
▁зака	-10473
▁еврей	-10474
▁бульва	-10475
▁пласти	-10476
▁финансовых	-10477
▁кап	-10478
▁краси	-10479
▁специальный	-10480
чую	-10481
▁tv	-10482
▁wsp	-10483
▁iphone	-10484
▁изъято	-10485
▁скульп	-10486
▁снизить	-10487
▁2000	-10488
▁вреда	-10489
▁закону	-10490
▁комплексе	-10491
▁мозга	-10492
▁резко	-10493
▁московским	-10494
▁припаркован	-10495
гибдд	-10496
▁мощность	-10497
цин	-10498
ьян	-10499
▁отме	-10500
▁грузи	-10501
▁переми	-10502
▁некоторо	-10503
▁маргарита	-10504
▁ситуацией	-10505
▁четвертом	-10506
▁проведению	-10507
руя	-10508
▁88	-10509
жига	-10510
▁(13	-10511
▁абра	-10512
органи	-10513
▁превысил	-10514
▁wy	-10515
▁эс	-10516
сные	-10517
▁штур	-10518
стройки	-10519
роснефть	-10520
▁универса	-10521
▁сирийской	-10522
▁килограмма	-10523
ват	-10524
еро	-10525
жах	-10526
воро	-10527
▁удоб	-10528
▁апелля	-10529
▁поиска	-10530
▁воронежской	-10531
▁паром	-10532
ительные	-10533
▁секторе	-10534
▁возглавит	-10535
▁столкновений	-10536
▁задействованы	-10537
▁пострадавшего	-10538
ish	-10539
мба	-10540
▁(15	-10541
▁запас	-10542
▁пятого	-10543
▁контакт	-10544
▁огранич	-10545
▁москвичи	-10546
▁приобретения	-10547
урал	-10548
▁обычно	-10549
▁обвиняют	-10550
▁подтверждает	-10551
ака	-10552
▁улю	-10553
▁очко	-10554
▁отложен	-10555
▁помогут	-10556
▁ситуаций	-10557
▁обстоятельств	-10558
тового	-10559
▁улицу	-10560
▁колумбии	-10561
▁работники	-10562
▁встречного	-10563
▁дипломатиче	-10564
▁7-	-10565
▁шаг	-10566
▁взаим	-10567
▁полный	-10568
▁вертолетов	-10569
▁фотографий	-10570
▁95	-10571
▁27-	-10572
▁госу	-10573
▁планах	-10574
▁необходимость	-10575
▁взаимодействия	-10576
▁информационного	-10577
сочи	-10578
▁океа	-10579
▁нашла	-10580
▁расто	-10581
▁прессы	-10582
▁поисково	-10583
▁приватизации	-10584
▁восстановление	-10585
гала	-10586
щегося	-10587
проекта	-10588
▁перевози	-10589
▁пытаются	-10590
.05	-10591
лера	-10592
▁гры	-10593
лонасс	-10594
▁удаль	-10595
▁говорил	-10596
▁корреспонденту	-10597
шир	-10598
▁бензин	-10599
▁гриппа	-10600
▁студен	-10601
▁сторона	-10602
▁требований	-10603
▁подозреваемые	-10604
▁вещи	-10605
▁граби	-10606
▁байка	-10607
▁закрытии	-10608
крылья	-10609
▁усили	-10610
▁строго	-10611
эффектив	-10612
▁провока	-10613
▁лесу	-10614
▁горах	-10615
▁каире	-10616
▁подели	-10617
▁американском	-10618
валась	-10619
▁11.30	-10620
▁одоле	-10621
▁приуро	-10622
▁дополнительных	-10623
фана	-10624
ждать	-10625
▁наби	-10626
▁вызов	-10627
фографи	-10628
▁набрала	-10629
▁расстоя	-10630
▁мит	-10631
▁поджо	-10632
▁учений	-10633
▁симферопо	-10634
▁общем	-10635
▁поток	-10636
▁реформи	-10637
-13	-10638
моз	-10639
▁судьи	-10640
▁вызвали	-10641
ier	-10642
▁кю	-10643
docs	-10644
стых	-10645
▁220	-10646
валось	-10647
▁слишком	-10648
▁устроили	-10649
▁пакистане	-10650
▁сторонники	-10651
▁гг	-10652
▁ночи	-10653
▁минфина	-10654
▁la	-10655
▁мой	-10656
▁замед	-10657
▁любовь	-10658
▁пожаро	-10659
▁коалиции	-10660
▁населением	-10661
▁заканчивается	-10662
:2.	-10663
▁фабри	-10664
▁начинает	-10665
▁отправится	-10666
▁(25	-10667
▁рок	-10668
▁спецна	-10669
▁супруга	-10670
▁повысить	-10671
чув	-10672
киев	-10673
▁лей	-10674
▁либе	-10675
▁травми	-10676
▁бомбарди	-10677
▁которыми	-10678
▁возгорании	-10679
▁внешнеполитиче	-10680
rod	-10681
▁тар	-10682
▁миню	-10683
▁озву	-10684
▁дворе	-10685
▁малого	-10686
▁совершено	-10687
▁роскосмоса	-10688
▁должностных	-10689
-17	-10690
гну	-10691
лиге	-10692
▁арави	-10693
▁полез	-10694
▁канику	-10695
▁последнего	-10696
тари	-10697
▁зон	-10698
▁игна	-10699
▁долги	-10700
▁таган	-10701
▁диагно	-10702
▁невозможно	-10703
▁неизвестно	-10704
мата	-10705
▁скорби	-10706
▁откроют	-10707
▁поздрави	-10708
▁распреде	-10709
▁гражданского	-10710
▁предварительно	-10711
end	-10712
▁банд	-10713
▁минреги	-10714
▁хулиган	-10715
▁российскую	-10716
▁призе	-10717
▁медицинских	-10718
▁продолжался	-10719
▁84	-10720
▁аку	-10721
ходил	-10722
▁входя	-10723
▁службе	-10724
▁поселок	-10725
▁силовиков	-10726
▁штормовое	-10727
последствии	-10728
▁социального	-10729
▁роспотребнадзор	-10730
▁блог	-10731
▁колоко	-10732
▁выделить	-10733
▁дешевеет	-10734
▁сельского	-10735
▁образование	-10736
▁террористов	-10737
▁воде	-10738
▁каир	-10739
▁вымога	-10740
ственном	-10741
▁юнайтед	-10742
▁прошедшие	-10743
▁существую	-10744
▁пребывания	-10745
▁воскресенья	-10746
спило	-10747
▁юноше	-10748
▁валютных	-10749
льят	-10750
▁ово	-10751
▁готовность	-10752
▁1/4	-10753
▁дзю	-10754
▁меч	-10755
▁суди	-10756
▁продви	-10757
▁проекте	-10758
▁имущество	-10759
аму	-10760
▁нарушении	-10761
▁петрозавод	-10762
▁стави	-10763
▁сожалению	-10764
▁ополз	-10765
▁прибли	-10766
▁личного	-10767
▁пропуска	-10768
▁ранениями	-10769
1%	-10770
площа	-10771
▁долю	-10772
▁миру	-10773
▁пропал	-10774
▁консуль	-10775
▁участвуют	-10776
▁облачность	-10777
ria	-10778
▁дина	-10779
▁пятый	-10780
▁русской	-10781
▁общественный	-10782
рск	-10783
▁5,5	-10784
▁пон	-10785
▁препят	-10786
▁сотрудничать	-10787
вающей	-10788
▁валентина	-10789
▁нидерландов	-10790
лик	-10791
фто	-10792
шер	-10793
▁2017	-10794
▁колы	-10795
▁вошел	-10796
▁текст	-10797
▁салоне	-10798
▁великий	-10799
▁кораблей	-10800
исла	-10801
емому	-10802
кцией	-10803
▁тяжелое	-10804
▁вырастет	-10805
▁избиении	-10806
▁участник	-10807
стные	-10808
▁жесто	-10809
▁зарплаты	-10810
▁дальнейшем	-10811
▁известного	-10812
▁приступили	-10813
▁дю	-10814
▁acc	-10815
чивать	-10816
▁выигры	-10817
▁активов	-10818
▁большим	-10819
▁открыто	-10820
гард	-10821
▁con	-10822
зится	-10823
▁госа	-10824
ложили	-10825
▁госза	-10826
▁литвы	-10827
▁6,5	-10828
▁сос	-10829
▁практи	-10830
▁бесплатно	-10831
▁приговора	-10832
▁83	-10833
▁рс	-10834
▁ука	-10835
▁испыты	-10836
▁повлек	-10837
ходу	-10838
▁поставля	-10839
дис	-10840
роса	-10841
ственными	-10842
тельством	-10843
▁космической	-10844
рк	-10845
-154	-10846
дорож	-10847
▁балло	-10848
▁коллеги	-10849
репортаже	-10850
▁разрушениях	-10851
▁шка	-10852
▁зарабо	-10853
▁байкону	-10854
▁рождествен	-10855
яб	-10856
шат	-10857
голу	-10858
▁мун	-10859
▁дебю	-10860
ждением	-10861
▁основным	-10862
▁поколения	-10863
▁процессуаль	-10864
▁саратовской	-10865
▁журналистами	-10866
▁преступление	-10867
1-	-10868
дев	-10869
сент	-10870
▁транзи	-10871
▁подтвердила	-10872
▁региональной	-10873
пон	-10874
▁ров	-10875
▁клей	-10876
вающие	-10877
▁черно	-10878
кратный	-10879
▁европу	-10880
▁лагеря	-10881
▁посадки	-10882
▁екатеринбурга	-10883
рора	-10884
▁прогу	-10885
▁исключи	-10886
▁отметки	-10887
▁насколько	-10888
▁предыдущий	-10889
▁дополнительно	-10890
▁прести	-10891
▁пункте	-10892
▁болезни	-10893
▁причине	-10894
▁самоубий	-10895
фк	-10896
нева	-10897
▁шот	-10898
▁сложно	-10899
▁подобные	-10900
▁некоторое	-10901
▁впоследствии	-10902
▁федо	-10903
▁давно	-10904
▁травма	-10905
▁шарапова	-10906
▁сотрудница	-10907
▁внести	-10908
▁угибдд	-10909
▁разруши	-10910
▁февраль	-10911
▁объединения	-10912
2%	-10913
чкой	-10914
redit	-10915
▁авиарей	-10916
▁проведена	-10917
▁численность	-10918
▁sp	-10919
▁доми	-10920
▁бомбе	-10921
▁могло	-10922
▁общую	-10923
▁штрафа	-10924
действию	-10925
ствовала	-10926
▁сборных	-10927
промышлен	-10928
▁районный	-10929
▁среднего	-10930
▁посвященный	-10931
▁вообще	-10932
▁звание	-10933
▁пекине	-10934
▁беспило	-10935
безопас	-10936
▁донецка	-10937
министром	-10938
вну	-10939
интере	-10940
▁извер	-10941
▁точно	-10942
▁решении	-10943
▁обнаружена	-10944
▁составляла	-10945
▁чрезвычайных	-10946
▁hy	-10947
▁орке	-10948
компания	-10949
▁заявлял	-10950
▁ведомстве	-10951
▁президиума	-10952
co	-10953
▁bmw	-10954
денции	-10955
емости	-10956
▁дождя	-10957
▁митингу	-10958
▁уральского	-10959
▁медицинского	-10960
tv	-10961
мане	-10962
▁29-	-10963
▁дель	-10964
▁съем	-10965
▁балтий	-10966
▁георгий	-10967
▁калифор	-10968
▁округов	-10969
▁дорожает	-10970
▁комиссию	-10971
▁следующим	-10972
▁договоренности	-10973
▁тэ	-10974
лада	-10975
▁затро	-10976
▁народу	-10977
▁сообщений	-10978
ib	-10979
ny	-10980
аэ	-10981
жец	-10982
▁расти	-10983
▁сцене	-10984
▁монасты	-10985
▁уничтожены	-10986
вс	-10987
рные	-10988
▁нужны	-10989
▁своему	-10990
▁путиным	-10991
▁улюкаев	-10992
▁гагарина	-10993
▁половина	-10994
▁принимает	-10995
тот	-10996
фукуси	-10997
▁долгов	-10998
▁лишение	-10999
▁сборные	-11000
▁дип	-11001
ванием	-11002
▁звезды	-11003
▁центром	-11004
▁заведения	-11005
▁тц	-11006
моло	-11007
дцать	-11008
▁арте	-11009
▁общее	-11010
▁принят	-11011
▁непогоды	-11012
▁московское	-11013
▁отличились	-11014
bc	-11015
so	-11016
-14	-11017
▁дым	-11018
▁десан	-11019
▁группой	-11020
▁доходов	-11021
▁обеих	-11022
▁ослаб	-11023
▁потеп	-11024
na	-11025
▁буэ	-11026
▁облом	-11027
▁свадь	-11028
▁осмотре	-11029
▁направить	-11030
ill	-11031
ленное	-11032
▁далее	-11033
▁машино	-11034
хождение	-11035
▁набирает	-11036
▁столичных	-11037
▁предприятие	-11038
my	-11039
.25	-11040
▁70-	-11041
вшуюся	-11042
лимпиа	-11043
тифика	-11044
ational	-11045
фициаль	-11046
▁интересы	-11047
▁болельщики	-11048
бара	-11049
анали	-11050
▁соро	-11051
▁знает	-11052
▁полосы	-11053
▁ракета	-11054
▁добиться	-11055
▁достижения	-11056
▁обсуждение	-11057
ine	-11058
▁нии	-11059
▁уде	-11060
▁дуба	-11061
▁кипр	-11062
чества	-11063
▁airlin	-11064
▁дохода	-11065
▁экспози	-11066
▁незаконной	-11067
▁культурного	-11068
▁8-	-11069
▁97	-11070
щийся	-11071
ьером	-11072
▁выпи	-11073
▁клинтон	-11074
▁подземные	-11075
13	-11076
соли	-11077
▁отоп	-11078
аэрофлот	-11079
▁выступят	-11080
▁представят	-11081
эйр	-11082
▁знаю	-11083
▁вчера	-11084
▁заморо	-11085
▁сахалин	-11086
▁проиграли	-11087
▁2,2	-11088
▁бух	-11089
▁rian	-11090
▁минздрава	-11091
▁сопротивление	-11092
▁есте	-11093
▁объемы	-11094
▁направил	-11095
▁транспортного	-11096
план	-11097
▁оаэ	-11098
▁скр	-11099
надцати	-11100
▁традиции	-11101
мск	-11102
▁отобра	-11103
▁причинам	-11104
▁абду	-11105
▁копи	-11106
ностях	-11107
▁штатном	-11108
▁отключение	-11109
ес	-11110
unda	-11111
▁гава	-11112
▁тольят	-11113
▁проекту	-11114
▁пенсионер	-11115
▁аналогичный	-11116
▁хабаровского	-11117
▁петербургский	-11118
▁подразделений	-11119
24	-11120
ненко	-11121
▁вызвал	-11122
▁голову	-11123
▁косово	-11124
▁путину	-11125
▁тарифов	-11126
▁погодных	-11127
▁находилась	-11128
жье	-11129
▁ля	-11130
▁(18	-11131
стали	-11132
▁мала	-11133
грузки	-11134
▁всеми	-11135
▁серьезных	-11136
▁пострадала	-11137
▁мультимедийном	-11138
бон	-11139
▁песни	-11140
▁латвий	-11141
▁чистая	-11142
▁выстрелил	-11143
▁земельных	-11144
▁родственников	-11145
ies	-11146
▁установил	-11147
▁отношениях	-11148
▁состоялось	-11149
▁статистики	-11150
▁разработать	-11151
шенной	-11152
▁играл	-11153
▁обоих	-11154
▁бронзу	-11155
тельность	-11156
▁выясняет	-11157
-16	-11158
▁airlines	-11159
▁абу	-11160
▁кому	-11161
▁бангко	-11162
▁заявок	-11163
▁устройств	-11164
▁бре	-11165
▁яви	-11166
▁маке	-11167
▁опрокину	-11168
▁проживают	-11169
▁обратилась	-11170
▁ликвидировали	-11171
▁tim	-11172
▁иномарка	-11173
уда	-11174
▁спрос	-11175
▁nissan	-11176
▁боксер	-11177
▁бюллет	-11178
▁валюты	-11179
▁родным	-11180
▁другого	-11181
▁чувашии	-11182
▁обрушение	-11183
▁федерация	-11184
▁московская	-11185
201	-11186
ковых	-11187
▁импорт	-11188
▁выделит	-11189
▁совпада	-11190
▁кузбассе	-11191
▁возглавлял	-11192
▁крупнейший	-11193
▁остановить	-11194
конта	-11195
▁немед	-11196
▁хвата	-11197
▁поздно	-11198
▁финали	-11199
▁сведений	-11200
▁таиланда	-11201
▁обрушился	-11202
дьми	-11203
нями	-11204
тилле	-11205
▁ильи	-11206
▁калуж	-11207
▁донецк	-11208
▁евросоюз	-11209
▁форварда	-11210
▁португалии	-11211
▁соответствует	-11212
▁восстановления	-11213
згла	-11214
▁гай	-11215
▁выгля	-11216
▁новак	-11217
▁сильных	-11218
▁показания	-11219
▁ул	-11220
▁туа	-11221
▁хаса	-11222
▁слухи	-11223
▁пункты	-11224
▁рекоменда	-11225
▁выполнения	-11226
▁туда	-11227
скорпо	-11228
енности	-11229
▁победе	-11230
▁циклон	-11231
▁инициативе	-11232
▁представить	-11233
шала	-11234
▁ставка	-11235
▁военную	-11236
▁индекса	-11237
▁выяснилось	-11238
▁трансляция	-11239
рский	-11240
▁дает	-11241
смотра	-11242
▁остав	-11243
▁парламенте	-11244
:8	-11245
зак	-11246
▁брей	-11247
▁горь	-11248
▁марат	-11249
▁стара	-11250
▁откуда	-11251
▁челябинске	-11252
▁180	-11253
▁дубль	-11254
▁создали	-11255
▁альтерна	-11256
▁получение	-11257
▁буэнос	-11258
▁замеча	-11259
▁искусств	-11260
▁традиционно	-11261
▁национальных	-11262
▁назар	-11263
▁объяснил	-11264
▁встречную	-11265
▁утверждает	-11266
▁новгородской	-11267
").	-11268
.35	-11269
помощ	-11270
▁небо	-11271
▁кадры	-11272
▁каким	-11273
▁дождей	-11274
▁прибывшие	-11275
▁jest	-11276
▁москвой	-11277
▁ванкувере	-11278
▁аи	-11279
▁экспертизы	-11280
▁находившихся	-11281
стый	-11282
▁евра	-11283
▁нала	-11284
▁ксения	-11285
▁вероятно	-11286
▁привлечены	-11287
▁олимпийские	-11288
▁финансового	-11289
диа	-11290
▁1-	-11291
▁зелено	-11292
▁готовит	-11293
▁остаться	-11294
▁открытый	-11295
▁больницах	-11296
▁основании	-11297
цб	-11298
▁аварийного	-11299
▁реконструи	-11300
▁предыдущего	-11301
.)	-11302
тю	-11303
ава	-11304
хия	-11305
▁сарко	-11306
▁дорога	-11307
▁порыва	-11308
жь	-11309
доз	-11310
етс	-11311
жер	-11312
март	-11313
▁головы	-11314
▁госкорпо	-11315
▁боевиками	-11316
▁выступили	-11317
:2,	-11318
щиеся	-11319
▁вред	-11320
▁залега	-11321
▁гололеди	-11322
▁товарищеском	-11323
чери	-11324
▁and	-11325
▁тель	-11326
вшимся	-11327
▁поздрав	-11328
▁изменить	-11329
if	-11330
▁наз	-11331
▁арка	-11332
▁засу	-11333
▁авиапере	-11334
▁происшествий	-11335
▁удостоверения	-11336
лнр	-11337
▁96	-11338
▁овд	-11339
тивом	-11340
▁кора	-11341
▁авиали	-11342
▁лесной	-11343
▁островов	-11344
▁вооружения	-11345
▁приговорен	-11346
▁находящихся	-11347
зки	-11348
щев	-11349
▁восток	-11350
▁зависит	-11351
▁случаях	-11352
▁существенно	-11353
вец	-11354
▁мои	-11355
▁босто	-11356
▁сприн	-11357
▁успех	-11358
▁кличко	-11359
▁япония	-11360
▁закрыть	-11361
▁картины	-11362
▁лечения	-11363
▁сноуден	-11364
▁переданы	-11365
▁середины	-11366
дс	-11367
▁масси	-11368
▁мусор	-11369
▁дворец	-11370
▁кольце	-11371
▁критиче	-11372
▁началом	-11373
▁покажет	-11374
хэ	-11375
чий	-11376
рины	-11377
откры	-11378
▁звона	-11379
▁формате	-11380
▁общество	-11381
▁заключение	-11382
▁увеличения	-11383
▁полицейским	-11384
бые	-11385
▁ады	-11386
▁уса	-11387
▁впло	-11388
▁младен	-11389
▁подборов	-11390
te	-11391
вшемся	-11392
▁банди	-11393
▁магатэ	-11394
▁многодет	-11395
▁совершили	-11396
▁консультации	-11397
▁духов	-11398
▁кремле	-11399
▁грузового	-11400
▁случившегося	-11401
лист	-11402
логии	-11403
▁достой	-11404
▁пушкин	-11405
▁филиппи	-11406
▁владелец	-11407
▁ирландии	-11408
▁возможном	-11409
▁положения	-11410
▁мани	-11411
▁оказана	-11412
▁вылететь	-11413
▁ежедневно	-11414
▁футбольных	-11415
▁эд	-11416
горя	-11417
▁онф	-11418
▁актера	-11419
▁модели	-11420
▁запретить	-11421
▁предложили	-11422
▁выпускников	-11423
▁99	-11424
леты	-11425
▁хар	-11426
нефть	-11427
ведении	-11428
▁влияние	-11429
▁начиная	-11430
▁температуры	-11431
▁устанавливают	-11432
нились	-11433
▁костю	-11434
▁запада	-11435
▁списка	-11436
▁таиланде	-11437
▁известных	-11438
пит	-11439
циями	-11440
▁довер	-11441
▁цистер	-11442
▁выполнять	-11443
▁лнр	-11444
▁встретятся	-11445
▁предупреждает	-11446
чинов	-11447
▁вспо	-11448
▁ранил	-11449
▁оценку	-11450
▁высказы	-11451
▁азербайджан	-11452
▁жид	-11453
▁оле	-11454
▁мяча	-11455
▁синга	-11456
▁округу	-11457
▁реализу	-11458
▁камчатки	-11459
▁возбудило	-11460
▁баскетбольной	-11461
дал	-11462
▁усть	-11463
▁отвер	-11464
▁морской	-11465
▁распространения	-11466
вз	-11467
щаться	-11468
▁наезд	-11469
▁людьми	-11470
▁структурах	-11471
▁92	-11472
▁31-	-11473
▁неве	-11474
▁задач	-11475
▁передал	-11476
▁фондовые	-11477
▁cn	-11478
само	-11479
динов	-11480
▁берег	-11481
▁подар	-11482
▁внесен	-11483
▁состоит	-11484
▁историче	-11485
▁пропаган	-11486
▁экстради	-11487
▁произведен	-11488
скала	-11489
▁надзор	-11490
▁совету	-11491
▁отремон	-11492
▁полигоне	-11493
▁уничтожили	-11494
▁высокопостав	-11495
▁bas	-11496
▁африкан	-11497
▁заметил	-11498
▁телефона	-11499
▁ограничен	-11500
▁подписать	-11501
▁разрабаты	-11502
вр	-11503
серва	-11504
▁марок	-11505
внуково	-11506
▁данной	-11507
▁варшава	-11508
▁махачкалы	-11509
▁последней	-11510
▁добавляется	-11511
ult	-11512
▁арсена	-11513
▁отозва	-11514
▁ранение	-11515
▁советского	-11516
ссон	-11517
культуры	-11518
скохозяй	-11519
▁передаче	-11520
▁поставку	-11521
▁таможенного	-11522
▁неблагоприят	-11523
ленд	-11524
▁торгу	-11525
▁индуст	-11526
▁ростури	-11527
▁абсолютно	-11528
▁отправлен	-11529
▁тренировки	-11530
▁пассажирами	-11531
▁удовлетворитель	-11532
сали	-11533
стеро	-11534
▁вузы	-11535
▁нами	-11536
▁показатели	-11537
our	-11538
▁туле	-11539
▁нашим	-11540
▁сборе	-11541
▁данном	-11542
▁морозы	-11543
▁воронеже	-11544
▁посетили	-11545
▁волейболу	-11546
▁вооруженные	-11547
▁улан	-11548
▁оценкам	-11549
▁заслужен	-11550
▁соперника	-11551
▁уточняются	-11552
ank	-11553
▁квартал	-11554
▁перечень	-11555
▁позицией	-11556
▁праздники	-11557
▁пишут	-11558
▁тамбов	-11559
▁подсчета	-11560
▁инфографи	-11561
кк	-11562
гна	-11563
▁отелей	-11564
▁закрыты	-11565
краснодар	-11566
▁окончании	-11567
▁американская	-11568
ustr	-11569
толи	-11570
▁архео	-11571
▁тонны	-11572
▁сенатор	-11573
интересован	-11574
▁посмотреть	-11575
▁противопожар	-11576
леб	-11577
зыск	-11578
кову	-11579
▁рыно	-11580
▁иванова	-11581
▁автотран	-11582
▁автодороге	-11583
лаш	-11584
хла	-11585
▁репети	-11586
металлург	-11587
38	-11588
▁кей	-11589
▁азаров	-11590
▁преимущество	-11591
шали	-11592
▁юсти	-11593
▁стены	-11594
▁проекти	-11595
▁рекламы	-11596
▁содействия	-11597
нял	-11598
▁бригада	-11599
▁биатлону	-11600
▁уполномоченного	-11601
водо	-11602
косми	-11603
лизации	-11604
▁холодной	-11605
▁отказалась	-11606
▁повреждены	-11607
витя	-11608
▁ford	-11609
▁зерна	-11610
▁возможны	-11611
▁родителя	-11612
▁россиянам	-11613
▁хоккейного	-11614
▁01	-11615
щество	-11616
▁тремя	-11617
▁госсов	-11618
▁иваново	-11619
▁внедорож	-11620
▁объектах	-11621
▁покинули	-11622
▁признали	-11623
▁представил	-11624
37	-11625
:10	-11626
тру	-11627
▁7,5	-11628
▁кня	-11629
▁толчков	-11630
▁победить	-11631
▁милиционеров	-11632
▁муниципального	-11633
▁ром	-11634
▁забы	-11635
▁учен	-11636
▁свири	-11637
▁регулярно	-11638
▁трансляцию	-11639
▁заинтересован	-11640
▁пассажирского	-11641
рис	-11642
ange	-11643
бору	-11644
ссией	-11645
▁старте	-11646
▁возраст	-11647
▁выстави	-11648
▁компьютер	-11649
▁мурманской	-11650
▁мониторинга	-11651
▁дум	-11652
▁интен	-11653
▁залегал	-11654
▁стимули	-11655
▁спасения	-11656
▁сада	-11657
тоттен	-11658
▁попов	-11659
▁верховного	-11660
▁электропередачи	-11661
авиа	-11662
▁буд	-11663
провоци	-11664
▁привели	-11665
▁сердюков	-11666
▁корпорации	-11667
сел	-11668
▁кво	-11669
стати	-11670
▁упали	-11671
▁обыски	-11672
▁артилле	-11673
▁уровнем	-11674
▁изоля	-11675
▁ошибки	-11676
▁трасса	-11677
тельству	-11678
▁население	-11679
ыми	-11680
▁тема	-11681
▁орден	-11682
▁газового	-11683
▁спровоци	-11684
▁вашингтоне	-11685
▁разрешение	-11686
▁избирательной	-11687
фр	-11688
хранили	-11689
▁ливанов	-11690
▁румынии	-11691
,45	-11692
▁вера	-11693
▁ферна	-11694
▁окрест	-11695
▁внешнем	-11696
▁введения	-11697
▁вынуждены	-11698
▁южнокорей	-11699
zcz	-11700
▁5%	-11701
▁мера	-11702
▁ближнем	-11703
▁прибытия	-11704
▁местности	-11705
▁убежи	-11706
▁отменил	-11707
▁зоопарка	-11708
▁создавать	-11709
▁прогнозирует	-11710
▁86	-11711
ротвор	-11712
▁добра	-11713
▁опасных	-11714
▁осталась	-11715
▁приводятся	-11716
▁протоколов	-11717
нки	-11718
▁(16	-11719
товый	-11720
роснефти	-11721
▁кавказе	-11722
▁задержанные	-11723
▁ио	-11724
▁границ	-11725
▁карача	-11726
▁сказали	-11727
▁создадут	-11728
мал	-11729
▁sh	-11730
▁барь	-11731
материа	-11732
▁четвертое	-11733
▁петропавловск	-11734
▁урегулированию	-11735
con	-11736
ине	-11737
фан	-11738
▁стив	-11739
▁чуров	-11740
▁большом	-11741
▁застави	-11742
▁нальчике	-11743
▁перенесен	-11744
▁зю	-11745
зона	-11746
ттер	-11747
▁хвати	-11748
▁отыгра	-11749
компании	-11750
▁645-64-72.	-11751
▁казахстане	-11752
▁совместной	-11753
▁магнитского	-11754
wa	-11755
шоу	-11756
▁конфи	-11757
▁африки	-11758
контакте	-11759
▁ходатайство	-11760
тара	-11761
▁жить	-11762
▁отрас	-11763
ровался	-11764
▁ученых	-11765
▁доверия	-11766
▁подверг	-11767
▁пределы	-11768
▁гимнасти	-11769
▁подобных	-11770
▁допустить	-11771
▁жилищного	-11772
▁подтопления	-11773
феев	-11774
▁опер	-11775
▁письмо	-11776
▁сотрудничеству	-11777
лию	-11778
ссен	-11779
нован	-11780
▁кудря	-11781
▁сорва	-11782
▁обязанностей	-11783
▁плана	-11784
▁землей	-11785
▁пенсии	-11786
▁хоккея	-11787
▁членом	-11788
▁чиновники	-11789
▁фактически	-11790
-100	-11791
▁2:1	-11792
▁nar	-11793
лекса	-11794
▁гиган	-11795
▁горки	-11796
▁матчем	-11797
▁полито	-11798
▁применения	-11799
кур	-11800
ились	-11801
футбо	-11802
▁двер	-11803
▁сбора	-11804
▁стоят	-11805
▁тарас	-11806
ющегося	-11807
▁большие	-11808
▁силуанов	-11809
▁сообщало	-11810
▁хоккеист	-11811
▁активисты	-11812
▁заработал	-11813
▁расположи	-11814
▁it	-11815
▁другое	-11816
▁надежду	-11817
▁начнутся	-11818
▁самолете	-11819
▁увеличил	-11820
▁ополченцы	-11821
▁внутренней	-11822
▁повреждение	-11823
▁работо	-11824
▁капитал	-11825
▁провали	-11826
надо	-11827
▁дерево	-11828
▁гаранти	-11829
▁стандар	-11830
▁новостях	-11831
▁or	-11832
▁юла	-11833
▁ушла	-11834
▁шестеро	-11835
▁экономику	-11836
99	-11837
стного	-11838
▁нижне	-11839
▁приехал	-11840
▁революции	-11841
▁восточного	-11842
шкек	-11843
▁итогов	-11844
▁справедли	-11845
пя	-11846
7).	-11847
кило	-11848
щают	-11849
▁лицо	-11850
▁замини	-11851
▁детские	-11852
▁псковской	-11853
▁пассажиропо	-11854
og	-11855
▁фрс	-11856
▁волн	-11857
▁жена	-11858
▁меду	-11859
▁моги	-11860
▁узнать	-11861
▁угрозой	-11862
▁михайлов	-11863
▁предоставления	-11864
зине	-11865
▁хиру	-11866
▁индия	-11867
▁трубы	-11868
▁эпиде	-11869
▁ставку	-11870
▁рабочий	-11871
▁празднования	-11872
▁краснодарском	-11873
жая	-11874
скры	-11875
прогре	-11876
▁стреми	-11877
▁народов	-11878
▁аукционе	-11879
▁ивановской	-11880
▁космодрома	-11881
▁составляют	-11882
▁крупнейшего	-11883
▁предоставил	-11884
▁нко	-11885
▁саркози	-11886
▁атлетике	-11887
▁завершены	-11888
▁школьники	-11889
zie	-11890
коро	-11891
▁регуля	-11892
▁сергеем	-11893
▁устойчи	-11894
▁миротвор	-11895
▁ожидания	-11896
▁приехали	-11897
▁сахалина	-11898
▁зависимости	-11899
▁подмосковной	-11900
.55	-11901
диться	-11902
▁аукциона	-11903
▁приморского	-11904
пили	-11905
▁уфа	-11906
▁25:2	-11907
▁пром	-11908
пущены	-11909
▁девело	-11910
▁займет	-11911
▁охране	-11912
▁турция	-11913
▁приобрести	-11914
▁ез	-11915
нину	-11916
сной	-11917
стку	-11918
▁inter	-11919
▁бомбы	-11920
▁болотной	-11921
▁сохранится	-11922
▁татарстане	-11923
18	-11924
▁вмс	-11925
undai	-11926
▁послу	-11927
▁южном	-11928
▁борьба	-11929
▁перечис	-11930
▁новорожден	-11931
▁политического	-11932
▁07	-11933
тский	-11934
ленная	-11935
ровались	-11936
▁наличие	-11937
▁иркутске	-11938
▁полковник	-11939
▁финальном	-11940
▁пау	-11941
▁пье	-11942
▁тушения	-11943
трансаэро	-11944
▁40-	-11945
▁осадки	-11946
▁пожару	-11947
▁венгрии	-11948
нафто	-11949
работки	-11950
▁яценюк	-11951
▁приняты	-11952
▁полутора	-11953
▁прогноза	-11954
▁ядерного	-11955
▁отношению	-11956
▁муниципалит	-11957
нный	-11958
▁авде	-11959
▁выжи	-11960
▁пульт	-11961
проводе	-11962
▁граммов	-11963
▁коллега	-11964
▁родственники	-11965
▁правоохранители	-11966
▁врио	-11967
▁кольца	-11968
▁пленар	-11969
сообщение	-11970
▁сирийского	-11971
никс	-11972
▁тумана	-11973
▁наступи	-11974
▁молодого	-11975
▁приготов	-11976
▁вступления	-11977
▁строительной	-11978
▁гк	-11979
щено	-11980
стской	-11981
▁следующих	-11982
▁директором	-11983
▁гам	-11984
▁хост	-11985
ченный	-11986
▁голодец	-11987
▁прилега	-11988
▁автоматиче	-11989
лта	-11990
цом	-11991
теры	-11992
▁жалобы	-11993
▁прямом	-11994
▁томские	-11995
▁владикав	-11996
▁выяснили	-11997
▁завалами	-11998
▁иранской	-11999
▁компанию	-12000
лар	-12001
поч	-12002
▁лева	-12003
▁разда	-12004
▁адвоката	-12005
▁контролю	-12006
▁структур	-12007
▁баскетболу	-12008
▁мосту	-12009
▁преми	-12010
▁магада	-12011
▁беремен	-12012
▁ранений	-12013
▁кипра	-12014
▁энергии	-12015
▁территориях	-12016
▁нали	-12017
▁повто	-12018
▁госпита	-12019
▁обстрела	-12020
▁навального	-12021
гло	-12022
шевич	-12023
▁затя	-12024
▁сетей	-12025
▁палата	-12026
региональ	-12027
▁введение	-12028
▁гражданами	-12029
▁дальнейшего	-12030
▁американскую	-12031
▁25:1	-12032
▁ведь	-12033
▁оскор	-12034
станция	-12035
▁приема	-12036
▁организовать	-12037
ge	-12038
глав	-12039
▁2,3	-12040
▁языка	-12041
▁пешеходов	-12042
▁состояться	-12043
▁всероссийской	-12044
▁da	-12045
тером	-12046
▁фрак	-12047
енисей	-12048
▁включает	-12049
▁обсуждать	-12050
▁подтвержда	-12051
▁поблагодарил	-12052
▁40%	-12053
▁табак	-12054
▁мировом	-12055
▁пассажирских	-12056
эш	-12057
ich	-12058
▁жюри	-12059
▁утро	-12060
▁аппарат	-12061
▁шествие	-12062
▁фурсенко	-12063
▁выступают	-12064
▁подмосковных	-12065
▁прогнозировали	-12066
sa	-12067
керы	-12068
▁адыге	-12069
▁весом	-12070
▁клубы	-12071
▁списке	-12072
▁hyundai	-12073
▁захорон	-12074
камчатский	-12075
ld	-12076
ара	-12077
▁арене	-12078
▁тюмени	-12079
▁близким	-12080
▁выходит	-12081
▁открыла	-12082
▁евролиги	-12083
▁проживает	-12084
▁станислав	-12085
дине	-12086
▁лихо	-12087
▁отдых	-12088
▁термометра	-12089
▁сахалинской	-12090
▁указывается	-12091
▁экономический	-12092
▁паралимпийских	-12093
мак	-12094
гвар	-12095
квали	-12096
▁плов	-12097
▁пента	-12098
▁бишкек	-12099
▁препара	-12100
▁циклона	-12101
восстанов	-12102
▁участникам	-12103
▁приземлился	-12104
▁2,4	-12105
▁папа	-12106
▁афана	-12107
ровский	-12108
▁жильцов	-12109
▁уголовных	-12110
-25	-12111
виз	-12112
▁павла	-12113
▁погибшим	-12114
▁аба	-12115
▁парад	-12116
сахалинск	-12117
▁благополу	-12118
ьева	-12119
стрее	-12120
▁уста	-12121
▁учили	-12122
▁годовых	-12123
▁единого	-12124
▁сельскохозяй	-12125
кана	-12126
ната	-12127
▁гуп	-12128
селона	-12129
▁кювет	-12130
▁эштон	-12131
▁небольшие	-12132
министрации	-12133
▁ставрополь	-12134
▁обследование	-12135
▁оренбургской	-12136
▁90-	-12137
▁ноги	-12138
▁корея	-12139
государ	-12140
▁говоря	-12141
▁изъяты	-12142
▁кодекса	-12143
▁погибшие	-12144
reditation	-12145
▁опасность	-12146
▁террорист	-12147
▁крупнейшей	-12148
ip	-12149
цп	-12150
▁вез	-12151
▁зимой	-12152
▁нужна	-12153
ступает	-12154
▁минуту	-12155
▁подсуди	-12156
▁подорожал	-12157
▁осуществля	-12158
▁французского	-12159
uk	-12160
▁захар	-12161
▁снять	-12162
рованная	-12163
▁корпуса	-12164
▁позволи	-12165
▁покупке	-12166
▁магнитого	-12167
▁памятников	-12168
▁поддержали	-12169
ронто	-12170
росте	-12171
▁видам	-12172
▁палом	-12173
▁забили	-12174
культура	-12175
▁запасов	-12176
▁рекомендова	-12177
графии	-12178
▁фронта	-12179
шестерки	-12180
▁сообщества	-12181
▁универсиады	-12182
▁6:4.	-12183
▁пристав	-12184
▁арестовал	-12185
▁иностранные	-12186
зовы	-12187
▁бок	-12188
▁шос	-12189
▁трево	-12190
▁высокий	-12191
▁высокого	-12192
▁российское	-12193
▁официальных	-12194
▁98	-12195
▁вни	-12196
▁дизе	-12197
▁моно	-12198
шенные	-12199
▁версия	-12200
▁удержи	-12201
▁шестой	-12202
ничество	-12203
▁расширен	-12204
▁встретился	-12205
▁презентация	-12206
▁бру	-12207
▁фри	-12208
▁рига	-12209
▁книгу	-12210
▁линия	-12211
▁патро	-12212
▁дворце	-12213
▁торгах	-12214
▁женская	-12215
▁заверил	-12216
▁снегопа	-12217
▁тяжелой	-12218
▁планируем	-12219
▁переменная	-12220
▁гендиректора	-12221
▁бет	-12222
▁доли	-12223
▁хотим	-12224
▁домашний	-12225
▁американец	-12226
удэ	-12227
фим	-12228
менко	-12229
фонов	-12230
▁каспи	-12231
▁выставо	-12232
▁очевидцы	-12233
▁сведениям	-12234
▁обнаружения	-12235
▁центральный	-12236
▁многоквартирных	-12237
ант	-12238
томи	-12239
тарем	-12240
▁кине	-12241
▁обой	-12242
▁модель	-12243
▁напомина	-12244
▁частного	-12245
▁становится	-12246
▁осуществляется	-12247
▁89	-12248
▁развя	-12249
▁забайкалье	-12250
▁встретиться	-12251
ютэйр	-12252
▁падении	-12253
▁донбасса	-12254
▁характери	-12255
▁потенциаль	-12256
▁170	-12257
▁1999	-12258
▁ожоги	-12259
▁обману	-12260
▁северный	-12261
▁всемирной	-12262
▁отравились	-12263
▁приобретение	-12264
▁109	-12265
▁фраг	-12266
▁журнала	-12267
▁открытом	-12268
▁магазинов	-12269
▁функциони	-12270
▁микроавтобус	-12271
гиев	-12272
няли	-12273
▁выступить	-12274
▁госдепарта	-12275
▁жириновский	-12276
▁современного	-12277
вера	-12278
турой	-12279
▁цветы	-12280
адмирал	-12281
ничного	-12282
▁обрушилась	-12283
▁возглавляет	-12284
хт	-12285
овок	-12286
▁жере	-12287
▁забе	-12288
▁серия	-12289
▁госсекретарь	-12290
▁продолжалась	-12291
ув	-12292
гран	-12293
▁майо	-12294
▁побо	-12295
емость	-12296
▁джона	-12297
▁старта	-12298
▁кримина	-12299
▁подорва	-12300
▁центризбир	-12301
ton	-12302
ездов	-12303
стяза	-12304
▁уруг	-12305
▁хотели	-12306
▁вариант	-12307
▁кавказа	-12308
▁работой	-12309
▁британии	-12310
▁народный	-12311
▁находясь	-12312
▁обрушении	-12313
нги	-12314
тек	-12315
agen	-12316
штаба	-12317
▁золотые	-12318
ствование	-12319
уэ	-12320
няк	-12321
вода	-12322
▁(17	-12323
▁логи	-12324
▁22.00	-12325
▁кызыл	-12326
▁процессе	-12327
▁состояния	-12328
▁кандидатом	-12329
▁отправился	-12330
▁вино	-12331
▁актри	-12332
▁двери	-12333
▁столбик	-12334
▁куп	-12335
ванию	-12336
▁елиза	-12337
▁профсою	-12338
▁немецкий	-12339
▁последняя	-12340
▁повреждений	-12341
35	-12342
уа	-12343
:25,	-12344
волга	-12345
▁продю	-12346
▁гаррос	-12347
▁сделок	-12348
▁остановки	-12349
▁разработки	-12350
▁полтавченко	-12351
▁освобождения	-12352
ell	-12353
чкин	-12354
▁35-	-12355
▁ист	-12356
зовую	-12357
▁барс	-12358
▁бирю	-12359
▁корей	-12360
▁устав	-12361
▁юниор	-12362
▁разыгра	-12363
▁зоопарке	-12364
▁расположенной	-12365
оп	-12366
нено	-12367
▁900	-12368
▁выби	-12369
▁осво	-12370
оборот	-12371
▁бомбу	-12372
▁избили	-12373
▁евразий	-12374
▁сгорели	-12375
▁близлежа	-12376
▁проверяют	-12377
пур	-12378
стря	-12379
▁65-	-12380
▁леви	-12381
▁закро	-12382
▁кодекс	-12383
▁тройку	-12384
▁марихуа	-12385
▁усилить	-12386
▁обвиняемых	-12387
▁вероятность	-12388
ваю	-12389
▁02	-12390
ценко	-12391
▁выехала	-12392
ussy	-12393
▁жел	-12394
нском	-12395
ураль	-12396
▁шанс	-12397
коммуна	-12398
▁афанась	-12399
▁посадке	-12400
так	-12401
▁лави	-12402
▁полож	-12403
▁мусора	-12404
нефтехими	-12405
▁демонстри	-12406
▁злоупотреб	-12407
▁публикации	-12408
19	-12409
▁кэме	-12410
▁моду	-12411
▁надаль	-12412
▁судана	-12413
▁сельхоз	-12414
▁внеочеред	-12415
▁противоре	-12416
▁проводиться	-12417
день	-12418
▁riot	-12419
▁газпром	-12420
▁намерении	-12421
платы	-12422
▁фаво	-12423
▁осмотра	-12424
▁разработан	-12425
▁специальных	-12426
сев	-12427
▁жары	-12428
▁избир	-12429
▁тяжелые	-12430
▁87	-12431
▁деревья	-12432
▁доволен	-12433
▁петрова	-12434
▁пермском	-12435
без	-12436
▁05	-12437
граф	-12438
долго	-12439
сятся	-12440
▁иорда	-12441
▁ближайших	-12442
▁конгресса	-12443
▁структуры	-12444
▁строительные	-12445
юн	-12446
ведут	-12447
ролан	-12448
▁коллег	-12449
▁перевез	-12450
▁следить	-12451
▁легкового	-12452
▁казанского	-12453
▁следственно	-12454
едут	-12455
▁днев	-12456
шается	-12457
▁странице	-12458
хой	-12459
меда	-12460
сера	-12461
стся	-12462
▁pussy	-12463
▁ухода	-12464
▁комфор	-12465
▁испанец	-12466
▁кадыров	-12467
▁экономика	-12468
▁транспорти	-12469
▁руках	-12470
▁сувер	-12471
▁лучшей	-12472
▁чиновника	-12473
▁аэропортов	-12474
▁урегулирования	-12475
ork	-12476
▁32-	-12477
▁sal	-12478
влади	-12479
черке	-12480
▁поса	-12481
▁разъ	-12482
▁берега	-12483
▁accreditation	-12484
гри	-12485
льева	-12486
▁подчи	-12487
▁обвинению	-12488
▁медицинская	-12489
порту	-12490
▁вуза	-12491
▁живут	-12492
▁лечеб	-12493
▁старше	-12494
▁использованием	-12495
чак	-12496
жгли	-12497
▁пира	-12498
▁трем	-12499
▁суммы	-12500
▁балета	-12501
▁никита	-12502
производ	-12503
▁западного	-12504
▁группировка	-12505
▁минкультуры	-12506
▁расследованию	-12507
▁бит	-12508
▁залог	-12509
▁подра	-12510
▁связаны	-12511
▁столько	-12512
▁трансфер	-12513
▁оборудова	-12514
▁отметился	-12515
▁процентов	-12516
▁as	-12517
▁1,9	-12518
▁ков	-12519
▁активы	-12520
▁высота	-12521
▁открыта	-12522
▁черномо	-12523
▁выявлено	-12524
▁пропустит	-12525
▁ссо	-12526
▁гиль	-12527
▁ммпц	-12528
▁смир	-12529
▁эпизо	-12530
▁записа	-12531
▁скоростью	-12532
▁стартовала	-12533
пари	-12534
▁экви	-12535
рубина	-12536
▁растут	-12537
▁бразиль	-12538
▁контракты	-12539
▁антитеррори	-12540
▁потерпевшего	-12541
▁бей	-12542
стерс	-12543
▁валь	-12544
▁дочери	-12545
▁играли	-12546
▁покушении	-12547
▁стартовом	-12548
▁согласован	-12549
▁содержание	-12550
▁авиакатастрофе	-12551
▁хер	-12552
▁бази	-12553
▁шишло	-12554
▁сделан	-12555
▁физических	-12556
▁зад	-12557
▁наркоти	-12558
▁научных	-12559
▁оформил	-12560
▁эстафете	-12561
▁возглавить	-12562
ниж	-12563
мисс	-12564
▁полной	-12565
▁джокович	-12566
▁стратегии	-12567
▁сокращение	-12568
деш	-12569
иск	-12570
рет	-12571
▁кари	-12572
ществи	-12573
▁выделят	-12574
▁набрали	-12575
▁призывают	-12576
▁зафиксирован	-12577
▁бос	-12578
▁ряду	-12579
▁газете	-12580
▁похорон	-12581
▁расскажет	-12582
ct	-12583
клу	-12584
▁бек	-12585
▁бассейн	-12586
▁лондона	-12587
▁интересов	-12588
▁совещания	-12589
ass	-12590
▁po	-12591
▁0,6	-12592
▁жар	-12593
▁виль	-12594
▁милан	-12595
▁альбер	-12596
▁декабрь	-12597
▁народных	-12598
▁отправил	-12599
▁конкурсной	-12600
▁начинается	-12601
▁предложила	-12602
▁предложений	-12603
▁причастности	-12604
▁информагентство	-12605
-27	-12606
нома	-12607
скон	-12608
ресур	-12609
▁голы	-12610
▁собак	-12611
▁взрыво	-12612
▁сноубор	-12613
▁европарла	-12614
▁планировалось	-12615
верх	-12616
▁(23	-12617
▁риме	-12618
▁софи	-12619
▁дзюдо	-12620
▁мечети	-12621
▁сократилась	-12622
поль	-12623
▁рук	-12624
▁яма	-12625
▁обоз	-12626
данных	-12627
жников	-12628
▁краже	-12629
▁убили	-12630
▁аресте	-12631
▁боевой	-12632
▁вызвало	-12633
▁розыска	-12634
▁томский	-12635
▁вещества	-12636
▁назначении	-12637
▁предпринимателя	-12638
ули	-12639
▁450	-12640
▁параш	-12641
▁добычи	-12642
▁тарифы	-12643
▁юстиции	-12644
▁действующих	-12645
▁современной	-12646
шель	-12647
реала	-12648
▁закс	-12649
▁рфпл	-12650
▁спроса	-12651
▁допуска	-12652
▁свободу	-12653
▁продлить	-12654
▁новороссий	-12655
▁предъявлении	-12656
▁победительницей	-12657
новая	-12658
▁чуко	-12659
▁вьетна	-12660
▁искать	-12661
пила	-12662
розыск	-12663
▁эдуард	-12664
▁возника	-12665
▁внимания	-12666
▁массового	-12667
▁восстанавли	-12668
▁наблюдается	-12669
▁ярославской	-12670
▁законопроекта	-12671
▁оре	-12672
▁гвар	-12673
▁польша	-12674
▁основания	-12675
▁volks	-12676
▁ввели	-12677
▁стена	-12678
▁карточ	-12679
▁номера	-12680
▁улучши	-12681
▁горячей	-12682
▁катанию	-12683
▁лицензии	-12684
▁атмосферное	-12685
▁ликвидировать	-12686
яет	-12687
▁нп	-12688
▁3,2	-12689
▁уша	-12690
▁ощуща	-12691
новение	-12692
▁вплоть	-12693
▁сервис	-12694
юв	-12695
зион	-12696
▁нак	-12697
change	-12698
▁лесов	-12699
▁услугах	-12700
▁ассамбле	-12701
▁водители	-12702
▁областей	-12703
▁чемпионка	-12704
▁определить	-12705
▁собственной	-12706
▁автотранспорта	-12707
сант	-12708
группа	-12709
▁парти	-12710
▁покупку	-12711
▁технику	-12712
▁взрывных	-12713
▁коллегой	-12714
▁народной	-12715
▁дистанцию	-12716
,06	-12717
▁06	-12718
▁аз	-12719
пока	-12720
▁счете	-12721
▁каждой	-12722
▁миллер	-12723
▁демонстрантов	-12724
wagen	-12725
магни	-12726
▁веща	-12727
▁альпи	-12728
▁мейта	-12729
▁жилищно	-12730
▁поставил	-12731
▁афганистан	-12732
▁терроризмом	-12733
,73	-12734
▁дар	-12735
енным	-12736
▁нови	-12737
обеспе	-12738
▁отметке	-12739
▁лидерство	-12740
▁продолжат	-12741
▁итальянский	-12742
▁15%	-12743
украин	-12744
▁герман	-12745
▁городом	-12746
▁девушек	-12747
▁крупной	-12748
▁воздержа	-12749
▁грузовой	-12750
▁макарова	-12751
▁перевозки	-12752
▁изначально	-12753
▁эвакуировано	-12754
жья	-12755
▁хэ	-12756
▁чел	-12757
▁przy	-12758
▁риск	-12759
тивное	-12760
▁горького	-12761
▁тюменской	-12762
▁сокращения	-12763
▁нападающего	-12764
гене	-12765
▁эко	-12766
▁омск	-12767
▁чечен	-12768
▁корректи	-12769
▁передано	-12770
▁помогать	-12771
▁советник	-12772
▁ган	-12773
▁лос	-12774
▁млад	-12775
▁наше	-12776
▁красо	-12777
▁озера	-12778
▁пособи	-12779
▁называют	-12780
▁находившиеся	-12781
▁безо	-12782
▁бирж	-12783
▁фсин	-12784
▁сумел	-12785
▁подума	-12786
▁третью	-12787
▁розыгры	-12788
▁осуществи	-12789
▁пермского	-12790
ничной	-12791
▁контей	-12792
▁штрафы	-12793
▁денежных	-12794
▁передали	-12795
▁действуют	-12796
▁назначена	-12797
▁ограничено	-12798
▁сократилось	-12799
▁преимущественно	-12800
тике	-12801
▁6:3.	-12802
▁смарт	-12803
▁страш	-12804
▁удастся	-12805
▁заявлением	-12806
▁прекращении	-12807
коне	-12808
наугу	-12809
▁дэвиса	-12810
ничестве	-12811
▁атакова	-12812
▁резервы	-12813
▁кинемато	-12814
▁недоволь	-12815
▁ребенком	-12816
▁контрабан	-12817
▁контролем	-12818
▁триумфаль	-12819
▁горы	-12820
ленную	-12821
▁times	-12822
▁дошко	-12823
▁экзамен	-12824
▁расположенных	-12825
▁злоумышленники	-12826
од	-12827
отно	-12828
рели	-12829
▁платы	-12830
▁закрыта	-12831
▁золотую	-12832
▁исполни	-12833
▁химоружия	-12834
▁спортивные	-12835
▁украинская	-12836
▁европейский	-12837
▁авиакомпаний	-12838
▁государственные	-12839
полне	-12840
▁друж	-12841
▁выявили	-12842
▁давления	-12843
▁карачаево	-12844
je	-12845
муж	-12846
санкт	-12847
▁пище	-12848
няться	-12849
▁нашел	-12850
▁стекла	-12851
кциональ	-12852
▁медиков	-12853
▁легковой	-12854
▁поддержка	-12855
▁благоприят	-12856
наде	-12857
нные	-12858
енном	-12859
▁ледо	-12860
▁варшав	-12861
▁угрозе	-12862
▁святого	-12863
▁продуктах	-12864
▁калининградской	-12865
▁предварительные	-12866
iem	-12867
тут	-12868
▁тща	-12869
горев	-12870
▁экра	-12871
ющимся	-12872
▁храме	-12873
▁потушили	-12874
▁федеральная	-12875
▁подготовленной	-12876
пенно	-12877
▁андер	-12878
▁мособ	-12879
▁турпо	-12880
▁пензен	-12881
▁открытых	-12882
▁проходили	-12883
▁максимально	-12884
▁московскому	-12885
кас	-12886
▁94	-12887
скар	-12888
▁нар	-12889
▁нобе	-12890
▁показ	-12891
▁тюмень	-12892
▁быстрее	-12893
▁попытался	-12894
:6.	-12895
aily	-12896
маха	-12897
▁весе	-12898
новского	-12899
▁пригород	-12900
▁признать	-12901
▁газопровода	-12902
▁теннисистки	-12903
испо	-12904
▁руд	-12905
сталь	-12906
▁чехов	-12907
тинской	-12908
▁самары	-12909
▁сменил	-12910
▁противостояния	-12911
▁травматического	-12912
ry	-12913
рики	-12914
▁пермь	-12915
▁числу	-12916
▁инаугу	-12917
▁оплаты	-12918
▁христа	-12919
▁грызлов	-12920
▁арба	-12921
▁рязан	-12922
▁хватает	-12923
▁экологии	-12924
▁попытались	-12925
▁необходимым	-12926
вене	-12927
▁уфе	-12928
▁фаби	-12929
▁daily	-12930
▁счаст	-12931
▁угрозу	-12932
▁бирюков	-12933
▁ростова	-12934
▁судебных	-12935
▁уверенно	-12936
▁пятигорск	-12937
▁возвращения	-12938
▁преступники	-12939
▁исследование	-12940
▁мило	-12941
▁взятку	-12942
▁обратно	-12943
▁отправлены	-12944
▁мах	-12945
▁займ	-12946
▁атлан	-12947
▁метрах	-12948
▁регионам	-12949
▁учеников	-12950
▁китайской	-12951
премон	-12952
▁любви	-12953
зовского	-12954
▁вызывает	-12955
полицейские	-12956
▁спч	-12957
▁вкла	-12958
▁главная	-12959
▁россель	-12960
▁капремон	-12961
▁николаев	-12962
▁сахалине	-12963
▁гололедица	-12964
▁пространства	-12965
яна	-12966
вало	-12967
▁2:0	-12968
плани	-12969
▁мега	-12970
▁ребя	-12971
▁высоты	-12972
▁пережи	-12973
▁резона	-12974
цер	-12975
чим	-12976
▁овер	-12977
▁мухам	-12978
▁серде	-12979
▁шайбу	-12980
▁комбина	-12981
▁категория	-12982
▁партнеров	-12983
▁обязательств	-12984
▁военнослужащие	-12985
ету	-12986
▁гви	-12987
кризи	-12988
спере	-12989
▁новей	-12990
▁уступив	-12991
▁интенсив	-12992
▁проблемам	-12993
▁фигурному	-12994
▁обнаружила	-12995
▁подопечные	-12996
▁костромской	-12997
▁se	-12998
чали	-12999
▁бомба	-13000
▁связя	-13001
▁лихорад	-13002
▁окраине	-13003
секретаря	-13004
▁резолюции	-13005
▁volkswagen	-13006
▁разработке	-13007
▁круглосуточный	-13008
дие	-13009
▁ала	-13010
лливу	-13011
▁идеи	-13012
▁элит	-13013
питали	-13014
▁прояс	-13015
▁техника	-13016
▁дежурную	-13017
▁готовятся	-13018
▁оппозицией	-13019
2).	-13020
помощи	-13021
▁вдоль	-13022
▁ударил	-13023
national	-13024
▁награду	-13025
▁верховный	-13026
▁предполагаемого	-13027
01,	-13028
дома	-13029
▁реб	-13030
▁гале	-13031
▁тюрем	-13032
▁фикси	-13033
▁задачу	-13034
▁кредита	-13035
▁протест	-13036
▁тольятти	-13037
▁торговле	-13038
▁учителей	-13039
▁экспедиции	-13040
▁великобритания	-13041
ity	-13042
стым	-13043
▁пли	-13044
образ	-13045
▁отца	-13046
▁убил	-13047
▁камен	-13048
▁карто	-13049
▁астана	-13050
▁смешан	-13051
▁неправи	-13052
▁назначено	-13053
▁постепенно	-13054
▁конструкций	-13055
▁референдума	-13056
▁учреждениях	-13057
▁калининграде	-13058
▁пх	-13059
▁2,7	-13060
▁идея	-13061
▁возро	-13062
▁расму	-13063
▁пытается	-13064
▁мероприятиях	-13065
▁отходов	-13066
▁перерыва	-13067
▁космических	-13068
▁постановления	-13069
камаз	-13070
культ	-13071
▁заха	-13072
▁кузь	-13073
▁кабул	-13074
▁хищения	-13075
▁известны	-13076
▁заявлений	-13077
▁рыб	-13078
▁такую	-13079
▁мартин	-13080
▁обстановки	-13081
▁финансовые	-13082
▁межрегиональ	-13083
фера	-13084
▁куби	-13085
▁проин	-13086
▁склады	-13087
pressria	-13088
▁подстанции	-13089
▁антиправитель	-13090
▁деятельностью	-13091
▁эффективности	-13092
кус	-13093
вова	-13094
ссор	-13095
стые	-13096
▁туман	-13097
▁высоте	-13098
▁отменен	-13099
▁пешехода	-13100
▁посещения	-13101
▁республика	-13102
▁специальные	-13103
▁нефтепродуктов	-13104
▁бесс	-13105
▁асада	-13106
▁извле	-13107
▁капел	-13108
▁собрав	-13109
▁военном	-13110
▁черепно	-13111
▁липецкой	-13112
▁принимали	-13113
▁0,7	-13114
▁грамо	-13115
▁стихий	-13116
▁стреля	-13117
▁выборам	-13118
▁черепов	-13119
▁воздушное	-13120
▁осужденных	-13121
▁расположены	-13122
ау	-13123
▁(20	-13124
▁рее	-13125
▁наступ	-13126
▁обесто	-13127
▁сайтов	-13128
▁материал	-13129
▁требованиям	-13130
дай	-13131
зово	-13132
▁еме	-13133
рядка	-13134
▁осети	-13135
▁италия	-13136
▁учебно	-13137
▁спасены	-13138
▁федерер	-13139
▁оставить	-13140
▁призвали	-13141
▁незаконном	-13142
▁социальные	-13143
▁1998	-13144
▁кисло	-13145
▁шахты	-13146
▁каждом	-13147
днестров	-13148
▁передач	-13149
▁соколов	-13150
▁войсками	-13151
▁вспыхнул	-13152
▁достигла	-13153
▁министерстве	-13154
куров	-13155
сезон	-13156
▁осен	-13157
▁спирт	-13158
▁трудо	-13159
▁орбиту	-13160
▁девушку	-13161
▁филиала	-13162
▁допустил	-13163
▁надеемся	-13164
▁комплексов	-13165
▁большинстве	-13166
▁максимальное	-13167
деся	-13168
▁ель	-13169
▁штат	-13170
▁банды	-13171
▁метель	-13172
▁разные	-13173
▁рабочим	-13174
▁трамвай	-13175
вконтакте	-13176
▁брянской	-13177
75	-13178
тока	-13179
▁чен	-13180
▁гаши	-13181
▁мюнхен	-13182
▁съезде	-13183
▁достичь	-13184
▁местона	-13185
шереметьево	-13186
▁температур	-13187
хро	-13188
▁trag	-13189
▁успел	-13190
▁госавто	-13191
▁светофо	-13192
▁учебного	-13193
▁разобраться	-13194
its	-13195
реса	-13196
▁двена	-13197
▁остро	-13198
▁горожан	-13199
▁разряде	-13200
▁протокол	-13201
▁поддерживать	-13202
▁2,6	-13203
▁погре	-13204
левской	-13205
▁охрану	-13206
▁подготовлен	-13207
ао	-13208
чье	-13209
▁доволь	-13210
▁коваль	-13211
▁коллед	-13212
▁пробки	-13213
▁сердца	-13214
▁поездок	-13215
▁референдум	-13216
▁российскому	-13217
атр	-13218
портал	-13219
посадо	-13220
▁очагов	-13221
▁похожи	-13222
▁правах	-13223
▁военным	-13224
▁прохожи	-13225
▁ограничи	-13226
▁похолода	-13227
▁прибудет	-13228
▁собираются	-13229
ood	-13230
▁робо	-13231
▁океане	-13232
▁собрал	-13233
▁платить	-13234
▁рыбаков	-13235
▁погибший	-13236
▁вооружений	-13237
▁закончился	-13238
▁приморском	-13239
▁поддерживают	-13240
eet	-13241
тома	-13242
шкой	-13243
▁ледя	-13244
▁пова	-13245
ленджи	-13246
▁водола	-13247
▁совсем	-13248
▁голодов	-13249
▁корзине	-13250
▁принесли	-13251
▁выполнение	-13252
дают	-13253
ислам	-13254
макова	-13255
▁смену	-13256
▁южная	-13257
▁осуждены	-13258
▁милиционер	-13259
▁обязательно	-13260
▁потребуется	-13261
▁рассматривать	-13262
▁гуд	-13263
ерово	-13264
▁забо	-13265
состоя	-13266
▁каждо	-13267
▁сериа	-13268
▁планеты	-13269
сми	-13270
ведо	-13271
▁хью	-13272
зацией	-13273
▁банке	-13274
▁набиу	-13275
▁сквор	-13276
▁содержи	-13277
барселона	-13278
▁лебедева	-13279
▁поступают	-13280
▁турк	-13281
▁ивана	-13282
▁эбола	-13283
спартаком	-13284
▁благодар	-13285
▁значение	-13286
▁проверят	-13287
▁торговом	-13288
▁опубликованном	-13289
▁cor	-13290
равится	-13291
▁зарубеж	-13292
▁квалифици	-13293
▁645-64-72,	-13294
▁шор	-13295
большой	-13296
▁паралле	-13297
▁построено	-13298
▁активности	-13299
вале	-13300
▁вряд	-13301
▁груд	-13302
▁ноже	-13303
▁назвать	-13304
▁функции	-13305
▁квартала	-13306
▁грузовиком	-13307
45	-13308
▁ъ	-13309
пери	-13310
ради	-13311
баева	-13312
▁тома	-13313
▁отопи	-13314
▁учета	-13315
▁подали	-13316
▁пьяный	-13317
▁старей	-13318
▁направит	-13319
▁захватили	-13320
▁комсомоль	-13321
-76	-13322
▁рен	-13323
терек	-13324
▁славы	-13325
зенитом	-13326
▁ректор	-13327
▁перелом	-13328
▁саудовской	-13329
▁необходимых	-13330
▁исполнительной	-13331
▁am	-13332
камер	-13333
монов	-13334
▁бунде	-13335
▁гастро	-13336
▁лагерь	-13337
▁учениях	-13338
▁соблюдать	-13339
▁разрушений	-13340
8).	-13341
▁кал	-13342
▁услы	-13343
▁энди	-13344
▁имена	-13345
▁фронт	-13346
▁вполне	-13347
▁отпуск	-13348
▁созыва	-13349
▁спасли	-13350
▁страхов	-13351
▁обратиться	-13352
▁политические	-13353
ile	-13354
йорка	-13355
служб	-13356
▁мощный	-13357
▁ожидали	-13358
▁минувшей	-13359
▁получают	-13360
▁названием	-13361
▁соглашений	-13362
▁прохождения	-13363
был	-13364
уса	-13365
есть	-13366
кона	-13367
▁ros	-13368
▁смя	-13369
награ	-13370
тинов	-13371
▁навер	-13372
евского	-13373
летнему	-13374
▁оценка	-13375
▁пойдут	-13376
▁прозра	-13377
▁завалов	-13378
▁новгорода	-13379
▁размещение	-13380
▁приднестров	-13381
▁госавтоинспек	-13382
▁руководителем	-13383
▁04	-13384
ющему	-13385
▁хасав	-13386
▁занять	-13387
▁офицер	-13388
▁нургали	-13389
▁прибыла	-13390
▁механизм	-13391
▁отклонил	-13392
▁спутника	-13393
▁электронных	-13394
▁25%	-13395
▁пару	-13396
▁сошли	-13397
▁сферы	-13398
▁минувшем	-13399
▁хорватии	-13400
▁александров	-13401
кф	-13402
сети	-13403
▁мел	-13404
▁макаров	-13405
▁выходить	-13406
▁полагает	-13407
▁облигаций	-13408
▁татарстан	-13409
▁архангельской	-13410
▁полузащитника	-13411
ris	-13412
твор	-13413
скони	-13414
▁кока	-13415
▁схема	-13416
▁кудряв	-13417
▁январь	-13418
▁поликли	-13419
▁резонанс	-13420
▁христиан	-13421
▁беспорядках	-13422
экономического	-13423
29	-13424
otel	-13425
▁cnn	-13426
▁шла	-13427
ллетти	-13428
▁атаки	-13429
▁душан	-13430
▁путей	-13431
лускони	-13432
▁версию	-13433
▁забросил	-13434
▁ремонтные	-13435
▁совершить	-13436
▁прогремели	-13437
▁статистике	-13438
▁уполномоченный	-13439
▁пом	-13440
▁сча	-13441
▁игор	-13442
▁клет	-13443
▁шанха	-13444
▁ураган	-13445
▁испанской	-13446
▁рег	-13447
▁фильме	-13448
▁бензина	-13449
▁берлине	-13450
▁диспетчер	-13451
▁завершена	-13452
▁коллектив	-13453
▁размещены	-13454
▁спаллетти	-13455
▁субъектах	-13456
▁олимпийской	-13457
▁рекомендует	-13458
▁:	-13459
оборон	-13460
▁прокат	-13461
▁сортов	-13462
▁капелло	-13463
▁правопо	-13464
▁кировской	-13465
▁обработки	-13466
▁is	-13467
евым	-13468
нует	-13469
винов	-13470
▁стоян	-13471
▁грозном	-13472
▁телевидение	-13473
▁ликвидировано	-13474
рани	-13475
▁ору	-13476
▁шле	-13477
▁эмо	-13478
▁йемена	-13479
▁правда	-13480
▁пушков	-13481
▁годовом	-13482
▁пилотов	-13483
▁дольщиков	-13484
▁совпадать	-13485
номы	-13486
пиаль	-13487
▁холо	-13488
▁шест	-13489
▁мурси	-13490
▁братья	-13491
▁диамет	-13492
▁медучре	-13493
▁горняков	-13494
▁занятости	-13495
▁обладатель	-13496
▁спасателям	-13497
▁средствами	-13498
ana	-13499
▁осо	-13500
▁пво	-13501
летов	-13502
▁педо	-13503
▁дефицита	-13504
▁принятие	-13505
▁врезалась	-13506
▁марихуаны	-13507
▁рассмотрят	-13508
berg	-13509
ничных	-13510
▁траур	-13511
▁миллиард	-13512
▁стациона	-13513
▁берлускони	-13514
▁итальянской	-13515
▁ецб	-13516
▁темы	-13517
▁значит	-13518
▁построит	-13519
▁проезжей	-13520
▁сертифика	-13521
▁утверждают	-13522
▁двусторонних	-13523
▁итальянского	-13524
▁1991	-13525
▁даты	-13526
▁саве	-13527
атлант	-13528
ровало	-13529
▁безвиз	-13530
▁педофи	-13531
▁сгорел	-13532
▁перейти	-13533
▁дипломат	-13534
▁пев	-13535
нская	-13536
▁рынки	-13537
▁многое	-13538
▁океана	-13539
▁отряда	-13540
▁взлетно	-13541
▁поддель	-13542
▁займется	-13543
▁призвала	-13544
▁русскому	-13545
экспер	-13546
▁сотен	-13547
▁магазине	-13548
▁исполнение	-13549
▁образовалась	-13550
▁щи	-13551
ital	-13552
маза	-13553
стили	-13554
▁6:2.	-13555
золотой	-13556
фикацию	-13557
▁космос	-13558
▁возможным	-13559
▁отделении	-13560
▁американцев	-13561
▁новосибирском	-13562
▁бк	-13563
коса	-13564
▁шел	-13565
▁нович	-13566
▁бориса	-13567
▁фанатов	-13568
океанского	-13569
▁оперативная	-13570
.,	-13571
фя	-13572
бют	-13573
нной	-13574
▁6:1,	-13575
▁букси	-13576
▁насили	-13577
▁угрожая	-13578
▁причинах	-13579
▁разбившегося	-13580
▁образовательных	-13581
спад	-13582
▁70%	-13583
стики	-13584
▁заме	-13585
▁афинах	-13586
▁певица	-13587
тельского	-13588
▁законным	-13589
▁завершено	-13590
▁расширить	-13591
▁госпитализации	-13592
▁осуществляться	-13593
▁wti	-13594
▁лице	-13595
▁каран	-13596
▁помогли	-13597
▁основную	-13598
кавказского	-13599
бки	-13600
вбек	-13601
рске	-13602
▁2,8	-13603
▁каме	-13604
жества	-13605
▁подру	-13606
▁центро	-13607
▁арктике	-13608
▁правило	-13609
▁справке	-13610
▁астронав	-13611
▁возможной	-13612
▁госпиталь	-13613
бет	-13614
дией	-13615
страи	-13616
▁иеру	-13617
▁понад	-13618
▁подала	-13619
▁подъем	-13620
▁запущен	-13621
▁работода	-13622
▁энергоснабжение	-13623
ube	-13624
уча	-13625
roduc	-13626
▁добычу	-13627
▁переиз	-13628
▁саперы	-13629
▁арктиче	-13630
▁мирного	-13631
▁обнаружил	-13632
▁разработку	-13633
▁официальной	-13634
▁сохраняется	-13635
▁приволжского	-13636
▁состоявшийся	-13637
гара	-13638
звез	-13639
тился	-13640
▁rena	-13641
▁паро	-13642
▁флаг	-13643
арсенал	-13644
▁учебных	-13645
▁филиппин	-13646
▁хранение	-13647
▁снизилось	-13648
▁добро	-13649
▁пятое	-13650
установ	-13651
▁барсело	-13652
▁триполи	-13653
▁двадцать	-13654
▁вернулась	-13655
▁пациентов	-13656
▁гражданских	-13657
▁полномочиями	-13658
▁способствовать	-13659
жк	-13660
▁pl	-13661
▁уди	-13662
евший	-13663
▁труп	-13664
▁удво	-13665
▁вскры	-13666
▁привы	-13667
▁статья	-13668
▁состяза	-13669
▁происходят	-13670
4).	-13671
▁кай	-13672
товые	-13673
▁грузин	-13674
▁надеются	-13675
▁партнерами	-13676
▁2,1	-13677
▁арша	-13678
▁пота	-13679
▁майкл	-13680
▁жертвы	-13681
▁дисциплина	-13682
▁согласился	-13683
▁водохранили	-13684
▁перспективе	-13685
▁региональные	-13686
ас	-13687
бары	-13688
▁налога	-13689
▁успеха	-13690
авангард	-13691
▁военная	-13692
▁основан	-13693
▁плаванию	-13694
▁экспорта	-13695
▁повысилась	-13696
▁возвращение	-13697
▁современных	-13698
ive	-13699
жера	-13700
▁wami	-13701
▁ушли	-13702
▁почув	-13703
▁высшей	-13704
▁случаю	-13705
программы	-13706
▁плющенко	-13707
▁хоккеистов	-13708
▁725	-13709
▁график	-13710
▁воздухе	-13711
▁голливу	-13712
▁челябинск	-13713
▁действующего	-13714
бол	-13715
дня	-13716
чал	-13717
▁град	-13718
▁austr	-13719
▁съезд	-13720
▁ветром	-13721
▁количеству	-13722
▁демонстрации	-13723
▁организацией	-13724
▁93	-13725
еней	-13726
▁асси	-13727
людение	-13728
▁спектакль	-13729
▁буда	-13730
распад	-13731
▁местную	-13732
▁обыграв	-13733
нарушение	-13734
▁бедствия	-13735
▁основного	-13736
▁заложников	-13737
▁общероссий	-13738
▁представлен	-13739
▁специальной	-13740
▁требованием	-13741
▁водоснабжение	-13742
мотор	-13743
нефти	-13744
празд	-13745
тными	-13746
▁обос	-13747
▁стер	-13748
▁сечин	-13749
▁языке	-13750
▁комисса	-13751
▁довольно	-13752
▁предлагается	-13753
чих	-13754
▁(22	-13755
▁каро	-13756
▁язык	-13757
▁рынков	-13758
▁персонала	-13759
▁возобновить	-13760
ph	-13761
▁sales	-13762
▁запрете	-13763
▁индексов	-13764
▁минувший	-13765
▁спокойно	-13766
▁дисквалифици	-13767
ряду	-13768
▁2-3	-13769
▁щер	-13770
ковым	-13771
▁важных	-13772
▁решила	-13773
▁предель	-13774
▁возможные	-13775
▁потенциал	-13776
люби	-13777
джерси	-13778
▁тайме	-13779
▁велого	-13780
▁картин	-13781
▁менять	-13782
▁турцию	-13783
▁хороший	-13784
восточный	-13785
▁вопросом	-13786
▁теплохода	-13787
▁мультимедийных	-13788
гуа	-13789
▁ден	-13790
жными	-13791
▁визы	-13792
▁длин	-13793
▁хамас	-13794
▁голоса	-13795
▁оставля	-13796
▁госсовета	-13797
▁переиграл	-13798
ук	-13799
дес	-13800
зво	-13801
▁ове	-13802
▁пот	-13803
▁дубае	-13804
▁лукой	-13805
▁языку	-13806
▁лайнер	-13807
▁частей	-13808
▁овертай	-13809
▁размером	-13810
▁холдинга	-13811
▁похищении	-13812
▁победители	-13813
▁завершились	-13814
▁окрестностях	-13815
▁ходорковского	-13816
мыми	-13817
алтай	-13818
вашинг	-13819
▁приви	-13820
ченного	-13821
▁передви	-13822
▁представили	-13823
эд	-13824
сец	-13825
▁en	-13826
▁0,8	-13827
▁анге	-13828
▁радо	-13829
нулись	-13830
▁иране	-13831
▁общим	-13832
▁орлов	-13833
▁позна	-13834
▁разбой	-13835
▁погибло	-13836
▁двигался	-13837
▁свидетелей	-13838
гр	-13839
▁пру	-13840
▁фцп	-13841
▁нужен	-13842
▁бахрей	-13843
барселоны	-13844
▁объявило	-13845
▁аэропорты	-13846
▁множество	-13847
▁французской	-13848
▁мошенничество	-13849
1).	-13850
жов	-13851
тащи	-13852
▁60-	-13853
▁was	-13854
▁хей	-13855
▁лавин	-13856
▁премия	-13857
▁вокзале	-13858
▁нанесла	-13859
▁первыми	-13860
▁автобусы	-13861
▁подчерки	-13862
▁составят	-13863
▁исключительно	-13864
by	-13865
ило	-13866
▁итог	-13867
▁раст	-13868
▁убра	-13869
▁залива	-13870
▁прояви	-13871
▁проверок	-13872
▁столичные	-13873
orld	-13874
гель	-13875
▁жил	-13876
числи	-13877
▁насу	-13878
▁пуск	-13879
▁руси	-13880
▁утечка	-13881
▁austral	-13882
▁подписания	-13883
▁приветствует	-13884
▁мс	-13885
▁пож	-13886
▁кише	-13887
▁люкс	-13888
▁sport	-13889
▁войти	-13890
▁драке	-13891
▁предше	-13892
▁соглас	-13893
нического	-13894
▁разверну	-13895
▁последнем	-13896
▁продавать	-13897
▁посетители	-13898
oom	-13899
▁he	-13900
леса	-13901
пинг	-13902
▁виды	-13903
▁актов	-13904
▁107	-13905
▁pro	-13906
дились	-13907
руково	-13908
▁соеди	-13909
кистане	-13910
▁подачи	-13911
▁разведки	-13912
▁ратифици	-13913
▁городскую	-13914
▁столкнулась	-13915
ence	-13916
жене	-13917
рацию	-13918
линского	-13919
оздорови	-13920
▁продажа	-13921
▁занимают	-13922
▁интервен	-13923
▁задержана	-13924
▁совершенно	-13925
тли	-13926
торам	-13927
▁борисов	-13928
▁достигли	-13929
▁задымление	-13930
▁фоторепортажей	-13931
физи	-13932
▁буква	-13933
▁вывел	-13934
▁готово	-13935
▁заказа	-13936
▁личный	-13937
▁наблюдения	-13938
▁разместить	-13939
▁перестрелки	-13940
▁стабильности	-13941
мега	-13942
обла	-13943
▁33-	-13944
▁york	-13945
ненков	-13946
▁хавбек	-13947
действии	-13948
▁завершила	-13949
▁представление	-13950
▁мультимедийная	-13951
▁сосе	-13952
▁уфсб	-13953
▁болез	-13954
▁скорей	-13955
▁ведущие	-13956
▁заранее	-13957
▁корабли	-13958
▁лайнера	-13959
▁рафаэль	-13960
▁министры	-13961
▁прекращения	-13962
▁еврокомиссии	-13963
спч	-13964
▁ираном	-13965
▁достоин	-13966
▁желание	-13967
▁останки	-13968
▁сильным	-13969
▁известные	-13970
▁смоленском	-13971
уна	-13972
скоп	-13973
▁111	-13974
▁che	-13975
▁дфо	-13976
▁оку	-13977
▁1994	-13978
▁гонка	-13979
▁обзор	-13980
▁госдеп	-13981
▁записи	-13982
▁эскала	-13983
▁капитана	-13984
▁участника	-13985
28	-13986
▁органа	-13987
▁особый	-13988
▁глонасс	-13989
▁периоде	-13990
▁шестого	-13991
▁стандарта	-13992
▁захарченко	-13993
▁отсутствия	-13994
let	-13995
▁козак	-13996
▁саран	-13997
▁венгер	-13998
▁альянса	-13999
▁вырасти	-14000
▁отказал	-14001
▁собрание	-14002
▁стамбуле	-14003
▁выполнить	-14004
▁полуостров	-14005
▁милиционера	-14006
▁прокуратуру	-14007
ue	-14008
дк	-14009
язы	-14010
берут	-14011
▁имел	-14012
проект	-14013
▁кирпи	-14014
▁аравия	-14015
▁артист	-14016
▁вручил	-14017
▁дополн	-14018
▁привела	-14019
▁реакция	-14020
▁звонарева	-14021
▁секретаря	-14022
▁забастовки	-14023
▁исполнении	-14024
ni	-14025
ану	-14026
цово	-14027
▁лиф	-14028
кости	-14029
▁нашу	-14030
▁пнев	-14031
▁sweet	-14032
▁мокры	-14033
▁сняли	-14034
▁местом	-14035
▁понома	-14036
▁признает	-14037
▁произвел	-14038
▁саратове	-14039
оперативная	-14040
▁нарушениях	-14041
▁немедленно	-14042
▁оперативные	-14043
▁многочисленные	-14044
▁птиц	-14045
читься	-14046
▁кровли	-14047
▁душанбе	-14048
▁моряков	-14049
▁вологодской	-14050
▁чрезвычайной	-14051
коп	-14052
▁весны	-14053
▁давид	-14054
▁мячей	-14055
▁чавес	-14056
▁днепро	-14057
▁потери	-14058
▁наркома	-14059
▁выходных	-14060
▁ключевые	-14061
▁телеграм	-14062
▁неизвестна	-14063
▁пространство	-14064
▁формирование	-14065
▁03	-14066
мура	-14067
всего	-14068
▁небе	-14069
▁стат	-14070
▁семью	-14071
▁пробка	-14072
▁центры	-14073
▁евросою	-14074
▁движении	-14075
▁известен	-14076
▁афанасьев	-14077
▁предметов	-14078
05,	-14079
ket	-14080
дох	-14081
▁es	-14082
▁3,6	-14083
▁юне	-14084
чиком	-14085
▁литов	-14086
▁мульт	-14087
▁утечки	-14088
▁ухудши	-14089
▁туризму	-14090
▁факульт	-14091
▁ярославле	-14092
▁представлять	-14093
▁правонарушения	-14094
один	-14095
▁рода	-14096
▁смяг	-14097
▁силов	-14098
▁аравии	-14099
▁закреп	-14100
▁учителя	-14101
▁пояснила	-14102
▁роскосмос	-14103
▁637-50-19.	-14104
▁принципиаль	-14105
▁наркотических	-14106
мне	-14107
▁уэ	-14108
роды	-14109
▁гиб	-14110
милан	-14111
▁уфим	-14112
словно	-14113
▁целый	-14114
▁ошибок	-14115
▁рубежа	-14116
▁стражи	-14117
▁отрицает	-14118
▁признаны	-14119
▁подешевел	-14120
▁мониторинг	-14121
ee	-14122
-2009	-14123
-2016	-14124
▁4:6,	-14125
сональ	-14126
▁детали	-14127
▁готовят	-14128
▁номеров	-14129
химки	-14130
▁торфя	-14131
▁утрен	-14132
▁военное	-14133
▁означает	-14134
▁прошедший	-14135
▁снв	-14136
амуре	-14137
▁мора	-14138
▁факта	-14139
▁ереван	-14140
▁пришла	-14141
металлур	-14142
▁гранаты	-14143
▁персонал	-14144
▁поставить	-14145
▁новогодние	-14146
▁расширение	-14147
▁учреждение	-14148
▁перспектива	-14149
▁владимирской	-14150
46	-14151
▁бег	-14152
▁wszy	-14153
▁дарья	-14154
▁нехва	-14155
▁местным	-14156
▁телеканалу	-14157
▁хабаровска	-14158
▁лондонского	-14159
▁партнерства	-14160
1.	-14161
евом	-14162
стья	-14163
▁отсе	-14164
▁вакци	-14165
▁взрывча	-14166
▁консоли	-14167
▁наставник	-14168
▁ограничить	-14169
▁соперников	-14170
▁непосредственно	-14171
/201	-14172
ждая	-14173
енная	-14174
счита	-14175
▁1992	-14176
▁карл	-14177
▁окно	-14178
▁касса	-14179
▁марий	-14180
▁передачу	-14181
▁взрывного	-14182
▁дежурного	-14183
▁маршрутки	-14184
▁обсуждаться	-14185
▁высокотехнологи	-14186
кологи	-14187
▁золотых	-14188
▁рыболов	-14189
▁задержать	-14190
▁изменится	-14191
▁пассажирам	-14192
▁информирует	-14193
▁железнодорожном	-14194
▁мама	-14195
▁нуля	-14196
▁возня	-14197
▁масса	-14198
▁перео	-14199
roducts	-14200
▁сотряс	-14201
акашвили	-14202
▁полпред	-14203
▁желающих	-14204
▁заксобра	-14205
▁мощностью	-14206
▁свободной	-14207
▁инициативу	-14208
▁микроавтобуса	-14209
▁результативным	-14210
:5,	-14211
гун	-14212
6-01,	-14213
вайте	-14214
вален	-14215
льность	-14216
▁турист	-14217
▁перехва	-14218
▁страной	-14219
▁перенести	-14220
▁самоуправ	-14221
▁днепропетров	-14222
5).	-14223
ктом	-14224
чнее	-14225
▁лам	-14226
▁тма	-14227
кторы	-14228
▁газу	-14229
▁риге	-14230
▁зубков	-14231
▁больниц	-14232
▁небольшо	-14233
▁отремонти	-14234
▁показателей	-14235
забо	-14236
▁чур	-14237
банов	-14238
▁зени	-14239
▁коти	-14240
женных	-14241
▁делает	-14242
▁прорыв	-14243
▁постара	-14244
▁выборами	-14245
▁казанский	-14246
▁продлении	-14247
▁процедуры	-14248
▁645-66-01,	-14249
▁авиаперевоз	-14250
2"	-14251
овую	-14252
томск	-14253
летела	-14254
▁ворот	-14255
▁дочер	-14256
▁жалоб	-14257
▁крест	-14258
▁асфаль	-14259
▁подать	-14260
▁привез	-14261
▁пучков	-14262
фукусима	-14263
▁renault	-14264
▁мордови	-14265
▁статуса	-14266
▁кемерово	-14267
▁эквадора	-14268
▁всемирный	-14269
▁проживания	-14270
nie	-14271
▁10.	-14272
▁кули	-14273
▁загру	-14274
▁взгляд	-14275
▁похоро	-14276
прогресс	-14277
▁площадок	-14278
▁соперник	-14279
▁экономические	-14280
кия	-14281
▁взно	-14282
▁ссоры	-14283
▁формы	-14284
▁высотой	-14285
▁коопера	-14286
▁защитить	-14287
▁обучения	-14288
▁саакашвили	-14289
▁расположенный	-14290
▁взаимодействие	-14291
▁пассажиропоток	-14292
rab	-14293
▁сид	-14294
▁1000	-14295
▁взло	-14296
▁село	-14297
▁жизне	-14298
▁темпы	-14299
▁выйдут	-14300
▁фильмы	-14301
▁костроме	-14302
▁пожароопас	-14303
▁пропавшими	-14304
жую	-14305
жане	-14306
▁заб	-14307
ханов	-14308
▁7251,	-14309
▁карты	-14310
▁объемом	-14311
▁лондонской	-14312
▁обслуживания	-14313
io	-14314
летит	-14315
▁сток	-14316
▁траги	-14317
▁выборг	-14318
▁645-6405,	-14319
▁возможного	-14320
▁проходящего	-14321
▁авиакатастрофы	-14322
3).	-14323
▁эпо	-14324
жском	-14325
▁рыбы	-14326
▁берды	-14327
▁олланд	-14328
products	-14329
▁жеребьев	-14330
▁одноимен	-14331
▁разногла	-14332
▁диагности	-14333
▁персональ	-14334
▁подписано	-14335
ost	-14336
рор	-14337
▁pe	-14338
гром	-14339
▁миа	-14340
▁russ	-14341
▁прису	-14342
▁курган	-14343
▁таллин	-14344
▁пожарами	-14345
▁семеро	-14346
▁сервиса	-14347
▁супруги	-14348
▁ветераны	-14349
▁воронежа	-14350
▁недопусти	-14351
▁освободил	-14352
▁шереметьево	-14353
▁заключительном	-14354
веду	-14355
ложит	-14356
летием	-14357
▁собор	-14358
▁юнеско	-14359
▁пушкина	-14360
▁следствием	-14361
комо	-14362
▁60%	-14363
▁80%	-14364
▁яна	-14365
строя	-14366
▁жара	-14367
▁снес	-14368
▁ташк	-14369
outube	-14370
▁bloom	-14371
▁внеза	-14372
произво	-14373
▁закрыто	-14374
▁митинге	-14375
▁мужчине	-14376
▁возняцки	-14377
▁собянина	-14378
▁смоленской	-14379
▁экспертиза	-14380
▁космический	-14381
▁молодежного	-14382
вию	-14383
сеев	-14384
стере	-14385
тивную	-14386
▁карта	-14387
▁ноябрь	-14388
▁тюрьме	-14389
носителя	-14390
▁создано	-14391
▁первомай	-14392
▁населению	-14393
▁центральных	-14394
▁un	-14395
▁входа	-14396
▁крите	-14397
▁серий	-14398
▁выража	-14399
▁указал	-14400
▁учитель	-14401
▁короткой	-14402
▁скрыться	-14403
▁комплексы	-14404
▁установки	-14405
▁интеграции	-14406
▁паралимпиа	-14407
▁сообщаются	-14408
▁отправились	-14409
сской	-14410
▁агра	-14411
▁гала	-14412
работке	-14413
▁бостоне	-14414
▁кредиты	-14415
▁сделано	-14416
▁федоров	-14417
▁обстреле	-14418
▁катастрофе	-14419
▁благовещенск	-14420
▁собственность	-14421
▁столкновениях	-14422
▁производителей	-14423
нио	-14424
▁чар	-14425
украина	-14426
ствующих	-14427
▁пятерых	-14428
▁переулке	-14429
▁набравший	-14430
▁отношение	-14431
▁поступили	-14432
▁астраханской	-14433
▁неизвестного	-14434
люб	-14435
▁81	-14436
онаб	-14437
▁попе	-14438
▁недав	-14439
▁тайва	-14440
▁особое	-14441
▁фондом	-14442
▁закрыли	-14443
▁bloomberg	-14444
▁интернета	-14445
▁контрактов	-14446
▁владикавказ	-14447
▁задолженность	-14448
▁информационное	-14449
сыла	-14450
▁бронза	-14451
▁ломоно	-14452
▁романа	-14453
▁показать	-14454
▁торговый	-14455
▁интересах	-14456
▁спортсмена	-14457
▁химического	-14458
▁родственникам	-14459
▁фоторепортажи	-14460
▁mic	-14461
теста	-14462
▁разным	-14463
▁реформ	-14464
▁запрета	-14465
▁продлен	-14466
▁проголосовать	-14467
ая	-14468
стю	-14469
цах	-14470
зино	-14471
каун	-14472
трин	-14473
мания	-14474
дителю	-14475
капита	-14476
ландия	-14477
▁пойти	-14478
энергия	-14479
▁парном	-14480
▁приняло	-14481
▁многоэта	-14482
▁причинен	-14483
▁поручение	-14484
▁всемирного	-14485
▁технических	-14486
▁договориться	-14487
▁парламентские	-14488
gra	-14489
мэф	-14490
▁лэп	-14491
▁фнл	-14492
▁киши	-14493
▁разу	-14494
▁сдать	-14495
▁вечеру	-14496
▁импера	-14497
▁похитил	-14498
▁бытового	-14499
московские	-14500
▁рязанской	-14501
▁обладателем	-14502
столк	-14503
▁летя	-14504
▁hotel	-14505
сообраз	-14506
▁созданы	-14507
▁добавили	-14508
▁ограбили	-14509
▁увеличила	-14510
▁праздников	-14511
▁восстановили	-14512
ата	-14513
рять	-14514
джест	-14515
▁ворва	-14516
▁невер	-14517
▁пикет	-14518
▁вернули	-14519
▁курской	-14520
▁патрули	-14521
▁создаст	-14522
▁амнистии	-14523
▁областное	-14524
безопасности	-14525
▁единственным	-14526
шар	-14527
довал	-14528
медов	-14529
▁дэвид	-14530
▁данное	-14531
▁уточняя	-14532
▁владислав	-14533
▁инвесторы	-14534
▁инспектор	-14535
▁официальные	-14536
▁физкультурно	-14537
▁190	-14538
радио	-14539
▁опроса	-14540
▁испания	-14541
▁парамет	-14542
▁поисках	-14543
▁возможен	-14544
▁учащихся	-14545
▁обойдется	-14546
▁кандидатуры	-14547
▁поверхность	-14548
ind	-14549
▁продав	-14550
ровского	-14551
▁денежные	-14552
▁офицеров	-14553
▁похороны	-14554
▁сентябрь	-14555
▁британской	-14556
▁увеличится	-14557
▁установила	-14558
▁британского	-14559
▁всероссийского	-14560
▁исполнительный	-14561
▁миг	-14562
грева	-14563
нарко	-14564
нятся	-14565
▁томском	-14566
▁давыденко	-14567
▁занимаются	-14568
[...]
